{"<unk>":0,"!":1,"\"":2,"#":3,"$":4,"%":5,"&":6,"'":7,"(":8,")":9,"*":10,"+":11,",":12,"-":13,".":14,"/":15,"0":16,"1":17,"2":18,"3":19,"4":20,"5":21,"6":22,"7":23,"8":24,"9":25,":":26,";":27,"=":28,"?":29,"@":30,"I":31,"M":32,"P":33,"R":34,"T":35,"[":36,"]":37,"_":38,"a":39,"b":40,"c":41,"d":42,"e":43,"f":44,"g":45,"h":46,"i":47,"j":48,"k":49,"l":50,"m":51,"n":52,"o":53,"p":54,"q":55,"r":56,"s":57,"t":58,"u":59,"v":60,"w":61,"x":62,"y":63,"z":64,"|":65,"~":66,"¢":67,"©":68,"®":69,"°":70,"à":71,"ä":72,"é":73,"í":74,"ñ":75,"ö":76,"ü":77,"ţ":78,"ʖ":79,"̀":80,"́":81,"̂":82,"̃":83,"̄":84,"̅":85,"̆":86,"̇":87,"̈":88,"̊":89,"̌":90,"̍":91,"̏":92,"̓":93,"̔":94,"̕":95,"̖":96,"̗":97,"̘":98,"̙":99,"̚":100,"̛":101,"̞":102,"̢":103,"̯":104,"̴":105,"̷":106,"̸":107,"̹":108,"̺":109,"̽":110,"̾":111,"͉":112,"͋":113,"͌":114,"͎":115,"͐":116,"͑":117,"͒":118,"͓":119,"͗":120,"͘":121,"͙":122,"͚":123,"͜":124,"͠":125,"͡":126,"е":127,"​":128,"‍":129,"‏":130,"‐":131,"—":132,"‘":133,"’":134,"“":135,"”":136,"„":137,"•":138,"▁":139,"⚠":140,"「":141,"」":142,"『":143,"』":144,"丅":145,"乂":146,"乇":147,"匚":148,"卂":149,"卄":150,"尺":151,"工":152,"️":153,"🌈":154,"🍆":155,"🍹":156,"🎵":157,"🎶":158,"🏳":159,"👄":160,"👌":161,"👮":162,"💥":163,"💦":164,"😍":165,"😫":166,"🥜":167,"🥪":168,"🥴":169,"🦖":170,"▁t":171,"▁h":172,"▁to":173,"ow":174,"▁how":175,"▁a":176,"ou":177,"in":178,"▁y":179,"▁you":180,"▁s":181,"▁your":182,"re":183,"er":184,"▁f":185,"▁b":186,"▁c":187,"▁p":188,"on":189,"▁w":190,"he":191,"at":192,"▁d":193,"it":194,"en":195,"or":196,"▁g":197,"▁m":198,"an":199,"▁the":200,"ing":201,"le":202,"al":203,"is":204,"om":205,"ar":206,"▁in":207,"et":208,"es":209,"▁o":210,"ic":211,"▁l":212,"el":213,"ke":214,"ac":215,"▁be":216,"▁n":217,"st":218,"ve":219,"▁an":220,"ri":221,"▁of":222,"ith":223,"▁with":224,"▁re":225,"▁e":226,"ot":227,"il":228,"▁st":229,"▁u":230,"se":231,"id":232,"ro":233,"▁for":234,"ion":235,"▁th":236,"▁get":237,"ir":238,"oo":239,"end":240,"▁ma":241,"▁on":242,"ly":243,"if":244,"ed":245,"out":246,"ay":247,"ome":248,"ur":249,"▁k":250,"ss":251,"ate":252,"ent":253,"im":254,"ra":255,"ig":256,"ct":257,"▁ha":258,"ell":259,"▁do":260,"ch":261,"▁ch":262,"op":263,"am":264,"riend":265,"▁make":266,"▁de":267,"▁sh":268,"ce":269,"ter":270,"▁at":271,"ad":272,"ol":273,"▁wh":274,"▁fr":275,"ver":276,"one":277,"▁whe":278,"and":279,"▁j":280,"▁se":281,"▁from":282,"un":283,"art":284,"▁tell":285,"▁v":286,"▁ne":287,"▁as":288,"ut":289,"as":290,"▁r":291,"▁su":292,"ck":293,"▁that":294,"▁li":295,"▁when":296,"are":297,"▁if":298,"ge":299,"▁sp":300,"ant":301,"ul":302,"▁con":303,"▁friend":304,"▁and":305,"ist":306,"'s":307,"▁pre":308,"ind":309,"ive":310,"ers":311,"igh":312,"pp":313,"▁is":314,"▁le":315,"▁out":316,"▁ex":317,"ation":318,"um":319,"▁up":320,"▁ab":321,"est":322,"▁pl":323,"▁pro":324,"▁int":325,"ack":326,"▁have":327,"▁te":328,"ill":329,"ab":330,"act":331,"ide":332,"us":333,"▁cat":334,"ine":335,"ild":336,"▁some":337,"▁bo":338,"ile":339,"▁like":340,"ick":341,"ap":342,"all":343,"▁not":344,"▁bec":345,"▁dog":346,"ice":347,"▁lo":348,"▁al":349,"pl":350,"ain":351,"ep":352,"▁mo":353,"gh":354,"▁about":355,"▁com":356,"▁kn":357,"▁bl":358,"elf":359,"ally":360,"th":361,"ook":362,"▁dis":363,"irl":364,"ure":365,"ast":366,"iz":367,"▁into":368,"▁un":369,"ake":370,"em":371,"▁become":372,"▁pe":373,"ect":374,"’s":375,"▁child":376,"▁someone":377,"▁sex":378,"▁pr":379,"ood":380,"own":381,"ak":382,"▁girl":383,"▁he":384,"per":385,"▁know":386,"ie":387,"ight":388,"qu":389,"▁it":390,"▁co":391,"▁wor":392,"▁use":393,"▁af":394,"ife":395,"dd":396,"▁by":397,"self":398,"▁off":399,"ach":400,"▁po":401,"ess":402,"ish":403,"▁go":404,"▁ar":405,"ard":406,"▁find":407,"friend":408,"ry":409,"▁yourself":410,"der":411,"ite":412,"▁en":413,"▁we":414,"s.":415,"▁are":416,"ace":417,"ag":418,"▁ro":419,"ore":420,"ime":421,"▁dr":422,"▁im":423,"ress":424,"▁cl":425,"▁after":426,"ople":427,"ub":428,"ink":429,"▁sc":430,"▁people":431,"ool":432,"▁hand":433,"ies":434,"for":435,"▁ri":436,"▁new":437,"alk":438,"ip":439,"nt":440,"ath":441,"▁man":442,"ize":443,"▁while":444,"pare":445,"▁show":446,"age":447,"▁you'":448,"ial":449,"▁ra":450,"▁fe":451,"▁stop":452,"ian":453,"▁or":454,"▁tr":455,"▁friends":456,"ity":457,"▁jo":458,"▁give":459,"▁gr":460,"ust":461,"ting":462,"ass":463,"▁bre":464,"oth":465,"▁prepare":466,"ame":467,"ving":468,"▁start":469,"sing":470,"▁part":471,"urn":472,"orn":473,"oid":474,"▁av":475,"▁kid":476,"▁look":477,"ire":478,"ous":479,"▁che":480,"sh":481,"▁sm":482,"ud":483,"▁act":484,"▁deal":485,"▁fl":486,"▁what":487,"ict":488,"▁time":489,"▁over":490,"▁being":491,"▁no":492,"ug":493,"ating":494,"▁me":495,"sp":496,"▁tra":497,"▁play":498,"▁per":499,"mon":500,"▁wat":501,"ber":502,"oy":503,"▁you're":504,"▁avoid":505,"▁sch":506,"ort":507,"▁life":508,"ff":509,"▁teach":510,"ase":511,"ld":512,"▁boy":513,"ne":514,"uck":515,"ise":516,"▁ac":517,"ance":518,"▁gu":519,"▁ke":520,"ident":521,"▁proper":522,"ang":523,"ble":524,"▁so":525,"ong":526,"▁work":527,"▁her":528,"iv":529,"og":530,"ost":531,"ely":532,"▁sur":533,"ner":534,"▁br":535,"▁school":536,"au":537,"▁qu":538,"our":539,"▁can":540,"▁att":541,"▁you’":542,"▁col":543,"▁talk":544,"ough":545,"▁sa":546,"▁plan":547,"ment":548,"oun":549,"▁wr":550,"pt":551,"▁ad":552,"▁girlfriend":553,"cre":554,"▁back":555,"▁em":556,"ign":557,"▁ass":558,"▁without":559,"▁rem":560,"▁keep":561,"du":562,"▁take":563,"ree":564,"▁good":565,"other":566,"▁using":567,"▁let":568,"▁imp":569,"de":570,"▁hide":571,"form":572,"▁(":573,"ren":574,"erm":575,"erson":576,"▁turn":577,"▁cre":578,"▁inter":579,"ual":580,"▁thr":581,"▁who":582,"▁\"":583,"ouse":584,"able":585,"▁properly":586,"▁own":587,"▁cont":588,"▁comm":589,"'t":590,"▁day":591,"▁his":592,"dy":593,"▁ph":594,"▁real":595,"▁app":596,"ily":597,"av":598,"ose":599,"▁home":600,"▁sw":601,"▁ask":602,"▁all":603,"▁bab":604,"ddit":605,"▁tw":606,"ult":607,"▁one":608,"way":609,"▁mar":610,"▁sn":611,"▁ey":612,"old":613,"get":614,"xt":615,"ans":616,"▁baby":617,"▁pet":618,"ail":619,"ear":620,"▁fam":621,"ond":622,"ird":623,"oot":624,"▁face":625,"▁you’re":626,"▁date":627,"ia":628,"int":629,"▁ste":630,"▁fun":631,"▁bu":632,"▁porn":633,"▁person":634,"▁expl":635,"▁eat":636,"ctor":637,"▁hel":638,"▁cle":639,"ash":640,"tle":641,"▁cop":642,"ght":643,"br":644,"▁ag":645,"amp":646,"▁2":647,"▁rec":648,"▁kill":649,"▁react":650,"▁1":651,"arm":652,"▁love":653,"▁mast":654,"▁r/":655,"▁break":656,"ph":657,"▁cr":658,"irst":659,"ound":660,"▁down":661,"ank":662,"▁doctor":663,"▁reddit":664,"▁boyfriend":665,"▁di":666,"os":667,"▁wom":668,"ue":669,"▁she":670,"very":671,"arent":672,"▁help":673,"ich":674,"▁read":675,"▁pol":676,"ik":677,"▁dec":678,"▁parent":679,"▁win":680,"ence":681,"▁add":682,"oney":683,"▁hum":684,"▁sl":685,"reat":686,"▁rel":687,"urb":688,"uring":689,"er.":690,"▁pract":691,"ens":692,"▁ev":693,"play":694,"ful":695,"ll":696,"les":697,"iss":698,"..":699,"▁first":700,"▁but":701,"▁don":702,"▁clean":703,"▁family":704,"▁am":705,"▁fet":706,"▁gh":707,"▁pen":708,"ney":709,"▁practice":710,"▁think":711,"▁comp":712,"▁rid":713,"ction":714,"▁neigh":715,"▁drug":716,"▁neighb":717,"▁pub":718,"▁want":719,"▁money":720,"▁black":721,"▁ghost":722,"▁during":723,"ock":724,"▁wife":725,"▁next":726,"ert":727,"eth":728,"up":729,"▁has":730,"bo":731,"▁high":732,"▁ident":733,"▁sk":734,"▁getting":735,"▁conf":736,"▁kids":737,"lic":738,"▁way":739,"▁dra":740,"▁resp":741,"▁under":742,"be":743,"ger":744,"▁best":745,"arn":746,"▁spe":747,"oc":748,"ify":749,"▁explain":750,"▁house":751,"ition":752,"leep":753,"▁watch":754,"iki":755,"▁their":756,"how":757,"▁det":758,"▁gay":759,"▁hair":760,"▁feel":761,"▁train":762,"▁car":763,"▁party":764,"▁cope":765,"fe":766,"joy":767,"▁more":768,"▁write":769,"▁post":770,"▁surv":771,"ave":772,"ors":773,"▁head":774,"cc":775,"▁away":776,"oose":777,"▁sub":778,"vie":779,"▁pret":780,"▁enjoy":781,"▁guy":782,"▁mem":783,"▁ru":784,"▁check":785,"▁through":786,"▁masturb":787,"ord":788,"▁gra":789,"▁see":790,"ush":791,"▁colle":792,"▁fur":793,"▁care":794,"esc":795,"▁arm":796,"▁fetish":797,"ikihow":798,"vers":799,"▁right":800,"▁human":801,"ci":802,"▁him":803,"▁night":804,"▁star":805,"▁survive":806,"ork":807,"augh":808,"▁“":809,"▁fin":810,"▁shit":811,"▁conv":812,"▁public":813,"uch":814,"▁put":815,"anc":816,"▁drink":817,"▁bad":818,"▁pick":819,"▁parents":820,"fect":821,"ty":822,"▁cou":823,"ract":824,"ually":825,"ark":826,"ary":827,"▁perform":828,"app":829,"co":830,"vel":831,"▁cow":832,"▁inv":833,"▁hot":834,"▁too":835,"▁they":836,"ump":837,"▁acc":838,"▁again":839,"▁cor":840,"ked":841,"▁this":842,"▁just":843,"▁exp":844,"iction":845,"▁steal":846,"aw":847,"▁end":848,"ont":849,"▁every":850,"ob":851,"acation":852,"▁having":853,"ute":854,"▁water":855,"▁son":856,"ings":857,"ical":858,"▁job":859,"▁hor":860,"▁fing":861,"▁game":862,"let":863,"ism":864,"▁cos":865,"▁say":866,"▁oth":867,"▁rac":868,"ious":869,"use":870,"itch":871,"▁them":872,"ull":873,"ince":874,"▁sleep":875,"▁big":876,"▁grand":877,"ship":878,"▁penis":879,"▁identify":880,"▁pretend":881,"uce":882,"▁mon":883,"▁commun":884,"een":885,"vot":886,"▁sed":887,"▁fuck":888,"ing.":889,"day":890,"▁lit":891,"▁leg":892,"▁prot":893,"ft":894,"man":895,"▁call":896,"▁any":897,"rop":898,"▁body":899,"▁year":900,"▁sign":901,"cept":902,"▁white":903,"gin":904,"ated":905,"▁mom":906,"▁demon":907,"ape":908,"ject":909,"▁tri":910,"▁bet":911,"▁ce":912,"▁sure":913,"cle":914,"fore":915,"▁ins":916,"▁succ":917,"▁grow":918,"▁convince":919,"ds":920,"▁ser":921,"omin":922,"▁rep":923,"▁eye":924,"▁food":925,"▁ball":926,"▁wikihow":927,"ange":928,"es.":929,"▁bird":930,"▁gi":931,"▁gl":932,"▁mur":933,"▁before":934,"▁dead":935,"▁spot":936,"duce":937,"bs":938,"▁fart":939,"▁chr":940,"▁furry":941,"ient":942,"ror":943,"ister":944,"room":945,"▁tele":946,"▁create":947,"aa":948,"me":949,"▁will":950,"▁long":951,"▁ann":952,"▁ear":953,"▁choose":954,"▁loc":955,"▁blow":956,"▁wear":957,"▁woman":958,"air":959,"vent":960,"▁fight":961,"▁inst":962,"ions":963,"oop":964,"▁where":965,"▁children":966,"▁org":967,"▁trans":968,"▁seduce":969,"com":970,"▁i":971,"ream":972,"▁come":973,"▁pay":974,"▁pun":975,"▁op":976,"▁sexual":977,"cret":978,"bit":979,"ower":980,"red":981,"ory":982,"▁decide":983,"line":984,"▁hit":985,"rest":986,"rect":987,"▁gre":988,"ster":989,"▁shoot":990,"▁prof":991,"▁hands":992,"▁cosplay":993,"▁3":994,"▁z":995,"▁ve":996,"▁cal":997,"▁run":998,"▁live":999,"▁pres":1000,"▁attack":1001,"ole":1002,"▁fant":1003,"▁bra":1004,"▁dri":1005,"▁list":1006,"▁art":1007,"ermine":1008,"▁draw":1009,"▁fantas":1010,"ale":1011,"▁pain":1012,"▁relation":1013,"n't":1014,"’t":1015,"▁test":1016,"▁only":1017,"▁dep":1018,"▁sum":1019,"▁lose":1020,"▁movie":1021,"▁ready":1022,"▁determine":1023,"▁success":1024,"ret":1025,"▁ple":1026,"less":1027,"▁20":1028,"▁addiction":1029,"▁cele":1030,"▁domin":1031,"▁old":1032,"ically":1033,"▁vis":1034,"asure":1035,"▁super":1036,"▁partner":1037,"▁perfect":1038,"▁cook":1039,"▁dress":1040,"ese":1041,"▁stay":1042,"▁step":1043,"sed":1044,"▁ext":1045,"▁intern":1046,"▁phone":1047,"▁celebr":1048,"gn":1049,"▁din":1050,"▁happ":1051,"▁death":1052,"▁twin":1053,"cial":1054,"ee":1055,"ib":1056,"ipp":1057,"▁free":1058,"▁been":1059,"▁really":1060,"▁accept":1061,"▁relationship":1062,"ible":1063,"y.":1064,"▁self":1065,"▁mus":1066,"ember":1067,"▁world":1068,"▁horse":1069,"ax":1070,"pe":1071,"uss":1072,"▁5":1073,"▁war":1074,"ann":1075,"ics":1076,"▁christ":1077,"che":1078,"▁sing":1079,"▁je":1080,"▁vir":1081,"▁room":1082,"▁eyes":1083,"ys":1084,"als":1085,"▁prevent":1086,"▁speak":1087,"az":1088,"band":1089,"io":1090,"▁pass":1091,"▁poop":1092,"ison":1093,"ade":1094,"▁remember":1095,"▁drugs":1096,"ove":1097,"▁sy":1098,"▁fish":1099,"▁dad":1100,"outh":1101,"▁ham":1102,"aper":1103,"▁impress":1104,"▁murder":1105,"▁har":1106,"ender":1107,"▁chick":1108,"▁suic":1109,"▁neighbor":1110,"▁successful":1111,"ling":1112,"▁el":1113,"▁sell":1114,"▁dance":1115,"usband":1116,"▁rab":1117,"eric":1118,"▁pot":1119,"▁mind":1120,"str":1121,"▁str":1122,"▁char":1123,"▁secret":1124,"ants":1125,"▁cons":1126,"▁imag":1127,"▁dinner":1128,"▁ent":1129,"▁treat":1130,"▁aut":1131,"▁bed":1132,"▁buy":1133,"▁little":1134,"ps":1135,"▁hold":1136,"▁husband":1137,"▁fore":1138,"▁class":1139,"▁meet":1140,"▁annoy":1141,"▁internet":1142,"ward":1143,"▁esc":1144,"▁foot":1145,"▁cra":1146,"▁med":1147,"▁inc":1148,"icate":1149,"irt":1150,"▁upvot":1151,"▁blind":1152,"▁god":1153,"▁respond":1154,"▁other":1155,"king":1156,"▁fav":1157,"▁bat":1158,"▁pri":1159,"arma":1160,"▁ruin":1161,"aughter":1162,"▁stud":1163,"▁vict":1164,"▁need":1165,"▁rob":1166,"fort":1167,"▁join":1168,"▁butt":1169,"▁celebrate":1170,"▁suicide":1171,"ball":1172,"fl":1173,"▁sat":1174,"▁pig":1175,"ons":1176,"▁karma":1177,"▁vamp":1178,"▁supp":1179,"neyv":1180,"▁against":1181,"by":1182,"gg":1183,"▁toile":1184,"▁air":1185,"▁sou":1186,"▁gen":1187,"▁mat":1188,"▁ob":1189,"▁last":1190,"▁eating":1191,"unk":1192,"▁save":1193,"▁realize":1194,"▁protect":1195,"neyvacation":1196,"▁toilet":1197,"▁set":1198,"▁dick":1199,"stand":1200,"▁reg":1201,"▁stand":1202,"▁shad":1203,"▁intro":1204,"▁contro":1205,"▁don't":1206,"▁correct":1207,"▁summon":1208,"ca":1209,"▁ter":1210,"▁bath":1211,"▁min":1212,"▁ur":1213,"▁catch":1214,"▁feed":1215,"▁rabbit":1216,"dis":1217,"yle":1218,"▁ign":1219,"▁pat":1220,"▁mother":1221,"▁neck":1222,"▁boss":1223,"▁handle":1224,"▁breast":1225,"▁women":1226,"▁finger":1227,"▁victim":1228,"ness":1229,"pr":1230,"ould":1231,"▁bro":1232,"ator":1233,"▁mid":1234,"▁than":1235,"▁spice":1236,"▁commit":1237,"▁vampire":1238,"ien":1239,"pose":1240,"inate":1241,"rees":1242,"▁bir":1243,"▁cut":1244,"▁par":1245,"▁dist":1246,"led":1247,"▁online":1248,"oph":1249,"ills":1250,"▁disc":1251,"▁mark":1252,"▁even":1253,"▁americ":1254,"kes":1255,"ma":1256,"uff":1257,"▁try":1258,"▁cool":1259,"▁much":1260,"▁mouth":1261,"▁ed":1262,"▁eff":1263,"▁learn":1264,"▁brother":1265,"▁polit":1266,"▁college":1267,"lect":1268,"▁ant":1269,"▁anime":1270,"▁suck":1271,"▁pregn":1272,"umb":1273,"blem":1274,"▁police":1275,"▁open":1276,"00":1277,"cer":1278,"ix":1279,"▁fake":1280,"▁bus":1281,"▁cri":1282,"▁pop":1283,"▁beh":1284,"ribe":1285,"▁problem":1286,"allow":1287,"▁giant":1288,"▁birth":1289,"-t":1290,"ek":1291,"gan":1292,"tt":1293,"▁sister":1294,"▁fire":1295,"▁book":1296,"orm":1297,"▁anim":1298,"▁res":1299,"▁teen":1300,"▁heal":1301,"▁enem":1302,"▁smo":1303,"▁remove":1304,"▁two":1305,"-w":1306,"ves":1307,"▁sne":1308,"▁fre":1309,"hes":1310,"▁daughter":1311,"iting":1312,"▁my":1313,"▁force":1314,"ention":1315,"iate":1316,"▁you.":1317,"▁des":1318,"▁dream":1319,"its":1320,"▁men":1321,"apt":1322,"aking":1323,"▁coca":1324,"▁trick":1325,"ively":1326,"disneyvacation":1327,"▁cocaine":1328,"job":1329,"kin":1330,"▁ap":1331,"▁was":1332,"▁walk":1333,"ates":1334,"▁mis":1335,"ider":1336,"olog":1337,"inder":1338,"ogn":1339,"▁count":1340,"hol":1341,"ler":1342,"sy":1343,"ven":1344,"ina":1345,"▁fall":1346,"▁incre":1347,"vert":1348,"▁vide":1349,"ations":1350,"▁introduce":1351,"▁ignore":1352,"▁'":1353,"iness":1354,"▁wa":1355,"orite":1356,"▁sec":1357,"ession":1358,"▁communicate":1359,"▁favorite":1360,"▁aw":1361,"enn":1362,"▁gang":1363,"▁rest":1364,"ulate":1365,"▁rock":1366,"▁nose":1367,"▁adv":1368,"▁throw":1369,"▁virgin":1370,"▁escape":1371,"▁control":1372,"path":1373,"uter":1374,"▁hy":1375,"▁fem":1376,"▁fail":1377,"▁boo":1378,"▁bul":1379,"▁cult":1380,"ane":1381,"▁ref":1382,"▁disney":1383,"▁it's":1384,"▁local":1385,"▁dominance":1386,"ng":1387,"▁sal":1388,"▁gam":1389,"key":1390,"▁red":1391,"▁us":1392,"▁does":1393,"ube":1394,"▁quest":1395,"▁attract":1396,"▁swe":1397,"▁recogn":1398,"▁tar":1399,"▁sol":1400,"▁wash":1401,"▁front":1402,"▁convers":1403,"aste":1404,"▁going":1405,"▁crush":1406,"▁trip":1407,"▁power":1408,"▁move":1409,"▁it’s":1410,"▁eng":1411,"ression":1412,"▁trump":1413,"▁wrong":1414,"▁finally":1415,"▁everyone":1416,"▁sit":1417,"▁pict":1418,"▁paper":1419,"▁those":1420,"▁change":1421,"▁poss":1422,"▁flo":1423,"ought":1424,"▁understand":1425,"▁listen":1426,"▁chicken":1427,"gic":1428,"▁tinder":1429,"owers":1430,"eral":1431,"omb":1432,"rog":1433,"▁mass":1434,"unt":1435,"▁never":1436,"▁teeth":1437,"▁arg":1438,"▁shower":1439,"▁smell":1440,"▁social":1441,"...":1442,"▁shadow":1443,"▁picture":1444,"a.":1445,"row":1446,"sb":1447,"▁squ":1448,"▁fan":1449,"▁fig":1450,"▁fact":1451,"▁bud":1452,"▁base":1453,"▁dif":1454,"ities":1455,"▁beat":1456,"▁eas":1457,"▁threes":1458,"ift":1459,"▁which":1460,"pper":1461,"▁blood":1462,"▁heart":1463,"▁racist":1464,"ience":1465,"oon":1466,"uc":1467,"▁cau":1468,"▁mir":1469,"alian":1470,"▁laugh":1471,"▁another":1472,"▁you've":1473,"▁computer":1474,"▁meme":1475,"▁happy":1476,"▁hamster":1477,"▁soul":1478,"▁sneak":1479,"▁increase":1480,"▁threesome":1481,"oin":1482,"▁4":1483,"▁sun":1484,"▁fast":1485,"▁bar":1486,"▁psy":1487,"▁dest":1488,"▁anal":1489,"rove":1490,"ross":1491,"▁should":1492,"olf":1493,"ular":1494,"istic":1495,"ument":1496,"▁drunk":1497,"▁teacher":1498,"▁r/disneyvacation":1499,"▁health":1500,"ior":1501,"ny":1502,"oint":1503,"▁touch":1504,"▁bill":1505,"▁past":1506,"ones":1507,"▁del":1508,"ald":1509,"▁lesb":1510,"▁pee":1511,"▁rap":1512,"ustr":1513,"▁quick":1514,"▁skin":1515,"▁masturbate":1516,"▁telepath":1517,"▁vegan":1518,"▁president":1519,"▁brain":1520,"▁student":1521,"▁video":1522,"▁lesbian":1523,"20":1524,"come":1525,"mas":1526,"▁fle":1527,"▁card":1528,"▁pur":1529,"▁light":1530,"▁nut":1531,"▁ang":1532,"▁stri":1533,"▁stalk":1534,"▁why":1535,"▁disapp":1536,"▁fear":1537,"▁better":1538,"▁fantasize":1539,"▁depression":1540,"▁music":1541,"▁effect":1542,"▁business":1543,"gy":1544,"i-":1545,"iet":1546,"mber":1547,"over":1548,"ric":1549,"ween":1550,"▁x":1551,"▁hom":1552,"▁yout":1553,"▁fat":1554,"▁bel":1555,"▁nipp":1556,"▁store":1557,"ram":1558,"▁leave":1559,"▁cock":1560,"▁around":1561,"▁assert":1562,"▁career":1563,"▁express":1564,"▁between":1565,"▁greet":1566,"▁conversation":1567,"▁figure":1568,"▁fil":1569,"▁bull":1570,"▁desc":1571,"▁inf":1572,"▁sho":1573,"▁prost":1574,"▁box":1575,"place":1576,"▁most":1577,"ather":1578,"▁surpr":1579,"▁phot":1580,"▁female":1581,"▁psych":1582,"cl":1583,"her":1584,"od":1585,"▁er":1586,"▁hard":1587,"ount":1588,"res":1589,"rection":1590,"▁cure":1591,"leg":1592,"▁ret":1593,"▁ep":1594,"▁things":1595,"▁def":1596,"oll":1597,"unch":1598,"▁cats":1599,"▁role":1600,"▁cann":1601,"▁marri":1602,"▁cowork":1603,"▁birthday":1604,"▁budget":1605,"▁diffe":1606,"af":1607,"ah":1608,"men":1609,"▁sim":1610,"read":1611,"▁bur":1612,"ene":1613,"▁mor":1614,"▁mill":1615,"ices":1616,"▁male":1617,"▁exam":1618,"ume":1619,"▁girls":1620,"▁its":1621,"▁club":1622,"▁build":1623,"aaaa":1624,"▁drive":1625,"▁201":1626,"▁strang":1627,"▁mirror":1628,"-s":1629,"book":1630,"gu":1631,"son":1632,"▁cir":1633,"ited":1634,"▁name":1635,"▁erection":1636,"otion":1637,"▁style":1638,"roy":1639,"▁cho":1640,"▁vacation":1641,"▁alien":1642,"▁dispose":1643,"▁prank":1644,"▁prison":1645,"▁looking":1646,"▁snake":1647,"▁respect":1648,"cohol":1649,"▁correctly":1650,"▁second":1651,"dle":1652,"ning":1653,"ru":1654,"ten":1655,"▁tree":1656,"▁host":1657,"▁size":1658,"▁won":1659,"▁wall":1660,"ative":1661,"▁got":1662,"▁met":1663,"▁ment":1664,"alf":1665,"acial":1666,"▁val":1667,"aren":1668,"▁exist":1669,"▁alcohol":1670,"▁area":1671,"▁grou":1672,"▁saf":1673,"▁adm":1674,"▁neighbors":1675,"board":1676,"▁balls":1677,"▁christmas":1678,"▁question":1679,"▁destroy":1680,"▁youtube":1681,"▁hat":1682,"rent":1683,"▁bow":1684,"▁bitch":1685,"▁cas":1686,"▁park":1687,"▁pants":1688,"ature":1689,"▁great":1690,"▁mil":1691,"▁still":1692,"▁form":1693,"ifi":1694,"imate":1695,"▁doll":1696,"▁exper":1697,"▁weird":1698,"▁you’ve":1699,"▁emo":1700,"body":1701,"▁confr":1702,"▁extra":1703,"▁annoying":1704,"▁upvotes":1705,"▁bathroom":1706,"▁recognize":1707,"-p":1708,"dr":1709,"lish":1710,"mate":1711,"the":1712,"▁ice":1713,"▁tur":1714,"head":1715,"itate":1716,"▁inner":1717,"▁thought":1718,"▁dev":1719,"▁shot":1720,"▁vi":1721,"▁inte":1722,"▁uni":1723,"▁prom":1724,"▁ens":1725,"▁week":1726,"▁scare":1727,"▁color":1728,"▁improve":1729,"▁pleasure":1730,"▁surprise":1731,"▁group":1732,"▁confront":1733,"-b":1734,"-l":1735,"fy":1736,"hn":1737,"▁fut":1738,"▁pu":1739,"▁wed":1740,"▁gold":1741,"lest":1742,"ality":1743,"▁ind":1744,"acc":1745,"acter":1746,"▁reject":1747,"▁forget":1748,"▁shop":1749,"▁left":1750,"▁plot":1751,"izz":1752,"▁imm":1753,"▁small":1754,"▁actually":1755,"▁master":1756,"▁thinking":1757,"▁accident":1758,"▁glass":1759,"rested":1760,"▁behind":1761,"▁describe":1762,"!!":1763,"ike":1764,"my":1765,"ym":1766,"yp":1767,"▁cast":1768,"▁die":1769,"oming":1770,"▁la":1771,"▁lad":1772,"ote":1773,"otic":1774,"▁kiss":1775,"▁karen":1776,"raph":1777,"▁plant":1778,"▁raise":1779,"▁order":1780,"▁john":1781,"ude":1782,"ropri":1783,"▁years":1784,"▁punch":1785,"▁discuss":1786,"ces":1787,"gle":1788,"xual":1789,"▁tit":1790,"▁taking":1791,"▁hol":1792,"▁hallow":1793,"▁tor":1794,"▁austr":1795,"oud":1796,"ines":1797,"▁same":1798,"erc":1799,"▁burn":1800,"▁cry":1801,"▁ped":1802,"▁puss":1803,"▁lat":1804,"ache":1805,"▁ele":1806,"▁third":1807,"▁magic":1808,"▁spend":1809,"▁less":1810,"▁prove":1811,"▁mod":1812,"▁discre":1813,"ized":1814,"▁flirt":1815,"ortion":1816,"ivor":1817,"▁surger":1818,"▁attention":1819,"duct":1820,"▁funeral":1821,"▁watching":1822,"▁grandma":1823,"▁blowjob":1824,"▁character":1825,"▁middle":1826,"▁problems":1827,"▁target":1828,"▁halloween":1829,"▁discreet":1830,"n’t":1831,"ple":1832,"▁ho":1833,"ination":1834,"▁send":1835,"▁sound":1836,"ense":1837,"▁meth":1838,"arch":1839,"icked":1840,"▁shame":1841,"▁jack":1842,"ason":1843,"▁race":1844,"▁becoming":1845,"▁dogs":1846,"▁lover":1847,"▁alone":1848,"▁someone's":1849,"▁cost":1850,"▁point":1851,"▁were":1852,"▁assass":1853,"▁creep":1854,"view":1855,"▁masturbating":1856,"▁invis":1857,"▁fingers":1858,"▁signs":1859,"fortable":1860,"▁market":1861,"▁pregnant":1862,"▁future":1863,"ding":1864,"dom":1865,"▁9":1866,"▁cy":1867,"▁cum":1868,"▁gun":1869,"▁there":1870,"▁law":1871,"▁begin":1872,"▁threat":1873,"ential":1874,"▁had":1875,"verse":1876,"▁rom":1877,"▁spir":1878,"▁spider":1879,"▁unw":1880,"▁meat":1881,"▁measure":1882,"▁letter":1883,"▁complet":1884,"▁inside":1885,"▁wearing":1886,"▁battle":1887,"▁american":1888,"▁enemies":1889,"▁ensure":1890,"▁discreetly":1891,"-h":1892,"▁hate":1893,"▁som":1894,"reci":1895,"▁fit":1896,"▁fly":1897,"▁piss":1898,"▁wifi":1899,"▁did":1900,"▁gender":1901,"▁mic":1902,"ana":1903,"▁inform":1904,"icious":1905,"▁kit":1906,"▁vag":1907,"asm":1908,"▁spy":1909,"▁exc":1910,"▁place":1911,"▁blue":1912,"▁cover":1913,"▁clone":1914,"▁contest":1915,"▁evil":1916,"▁wants":1917,"▁masturbation":1918,"velop":1919,"▁regret":1920,"▁distract":1921,"▁safely":1922,"ied":1923,"▁term":1924,"ouble":1925,"▁sand":1926,"▁fist":1927,"▁bas":1928,"▁cam":1929,"▁pack":1930,"▁duck":1931,"ital":1932,"arant":1933,"▁init":1934,"▁bear":1935,"▁ner":1936,"▁jer":1937,"▁friend's":1938,"▁level":1939,"▁office":1940,"▁feet":1941,"▁overcome":1942,"ograph":1943,"▁appreci":1944,"fully":1945,"▁skills":1946,"ibal":1947,"▁terror":1948,"▁argument":1949,"▁milk":1950,"▁invisible":1951,"-d":1952,"ein":1953,"of":1954,"r.":1955,"work":1956,"ze":1957,"▁half":1958,"▁aud":1959,"▁side":1960,"▁song":1961,"▁cross":1962,"▁wind":1963,"atur":1964,"ately":1965,"▁divor":1966,"▁mich":1967,"▁fort":1968,"▁may":1969,"▁chin":1970,"▁deb":1971,"▁develop":1972,"▁tech":1973,"▁sexually":1974,"akes":1975,"▁pos":1976,"▁cancer":1977,"▁ways":1978,"ances":1979,"▁successfully":1980,"▁imagine":1981,"▁support":1982,"▁healthy":1983,"▁effectively":1984,"▁someth":1985,"-a":1986,"hood":1987,"▁ir":1988,"▁hid":1989,"▁farm":1990,"▁cand":1991,"▁powers":1992,"▁wild":1993,"▁gain":1994,"▁thank":1995,"▁making":1996,"▁doing":1997,"▁vo":1998,"ieve":1999,"▁weed":2000,"▁sche":2001,"ives":2002,"▁brow":2003,"▁plane":2004,"▁adult":2005,"▁facebook":2006,"▁don’t":2007,"▁others":2008,"▁visit":2009,"▁satan":2010,"▁pussy":2011,"▁surgery":2012,"▁something":2013,".com":2014,"xic":2015,"▁table":2016,"▁pir":2017,"arge":2018,"▁las":2019,"▁egg":2020,"▁three":2021,"ellow":2022,"ama":2023,"aked":2024,"ivate":2025,"▁(for":2026,"▁appro":2027,"▁giving":2028,"▁orgasm":2029,"▁satis":2030,"▁film":2031,"▁cannibal":2032,"ier":2033,"▁/":2034,"▁ide":2035,"▁very":2036,"▁top":2037,"▁age":2038,"inal":2039,"▁camp":2040,"ato":2041,"att":2042,"▁ge":2043,"▁lim":2044,"acy":2045,"roke":2046,"▁once":2047,"ently":2048,"▁share":2049,"▁jap":2050,"▁jud":2051,"arth":2052,"ution":2053,"▁rich":2054,"▁susp":2055,"▁spouse":2056,"anted":2057,"▁team":2058,"pline":2059,"thing":2060,"▁sexy":2061,"▁kidn":2062,"ause":2063,"▁contact":2064,"▁killer":2065,"▁russ":2066,"▁fucking":2067,"▁demons":2068,"▁51":2069,"▁christian":2070,"▁robot":2071,"▁animal":2072,"▁disappoint":2073,"▁japan":2074,"cra":2075,"hole":2076,"iel":2077,"iving":2078,"lord":2079,"▁est":2080,"▁ill":2081,"ins":2082,"▁young":2083,"▁sil":2084,"▁bor":2085,"▁bot":2086,"▁cust":2087,"▁cour":2088,"▁natur":2089,"rim":2090,"rix":2091,"▁reven":2092,"▁stick":2093,"idence":2094,"vern":2095,"▁ju":2096,"▁jes":2097,"▁asian":2098,"▁abortion":2099,"▁disci":2100,"▁pray":2101,"que":2102,"▁italian":2103,"▁weight":2104,"▁drown":2105,"▁soci":2106,"▁safe":2107,"▁interview":2108,"ension":2109,"ertain":2110,"▁confuse":2111,"▁collection":2112,"▁month":2113,"▁telekin":2114,"▁punish":2115,"▁please":2116,"▁trying":2117,"▁floor":2118,"▁marriage":2119,"▁different":2120,"▁initiate":2121,"▁divorce":2122,"▁revenge":2123,"▁discipline":2124,"-m":2125,"dge":2126,"ged":2127,"hold":2128,"land":2129,"lder":2130,"te":2131,"ww":2132,"▁id":2133,"iny":2134,"inary":2135,"▁band":2136,"▁cur":2137,"▁cup":2138,"▁dent":2139,"ito":2140,"▁mult":2141,"essed":2142,"vember":2143,"▁earth":2144,"▁made":2145,"▁living":2146,"▁spell":2147,"▁lead":2148,"▁block":2149,"ther":2150,"▁govern":2151,"ager":2152,"▁november":2153,"▁bring":2154,"▁downvot":2155,"▁diet":2156,"ancy":2157,"▁drinking":2158,"▁paint":2159,"▁patient":2160,"▁experience":2161,"▁emoj":2162,"▁threaten":2163,"cy":2164,"gress":2165,"rat":2166,"rot":2167,"su":2168,"▁tim":2169,"reet":2170,"▁pull":2171,"▁wet":2172,"▁dark":2173,"▁gift":2174,"▁non":2175,"▁nice":2176,"▁naked":2177,"▁stra":2178,"▁stuff":2179,"▁stroke":2180,"▁kicked":2181,"▁deg":2182,"▁abuse":2183,"▁because":2184,"aster":2185,"▁uncle":2186,"▁coff":2187,"▁poison":2188,"▁scene":2189,"erman":2190,"ways":2191,"▁staring":2192,"▁organ":2193,"▁profile":2194,"▁profession":2195,"▁single":2196,"▁secretly":2197,"▁terri":2198,"▁smoke":2199,"ennial":2200,"▁nipples":2201,"ressed":2202,"▁millennial":2203,"▁unwanted":2204,"▁fortn":2205,"▁jesus":2206,"-f":2207,"got":2208,"ker":2209,"side":2210,"▁hun":2211,"▁dy":2212,"enact":2213,"▁must":2214,"▁rece":2215,"▁earn":2216,"▁ther":2217,"▁lie":2218,"▁abs":2219,"▁project":2220,"▁text":2221,"inea":2222,"▁uncom":2223,"▁arrested":2224,"▁enough":2225,"iality":2226,"▁smile":2227,"▁overlord":2228,"▁guinea":2229,"▁talking":2230,"duc":2231,"▁phys":2232,"▁slow":2233,"▁drag":2234,"▁early":2235,"▁green":2236,"▁syn":2237,"▁upvote":2238,"▁easy":2239,"▁caught":2240,"▁pedoph":2241,"▁vagina":2242,".com/":2243,"▁government":2244,"▁fortnite":2245,"bar":2246,"ging":2247,"ky":2248,"ov":2249,"r/":2250,"tly":2251,"wikihow":2252,"▁6":2253,"▁7":2254,"▁vers":2255,"▁found":2256,"▁foll":2257,"▁facial":2258,"▁capt":2259,"▁pool":2260,"▁dim":2261,"▁dating":2262,"itute":2263,"▁gym":2264,"eter":2265,"▁naz":2266,"ific":2267,"ed.":2268,"ents":2269,"▁door":2270,"▁short":2271,"olate":2272,"▁jump":2273,"▁asleep":2274,"ploy":2275,"▁offer":2276,"▁poor":2277,"▁playing":2278,"▁famous":2279,"▁neighbour":2280,"▁final":2281,"anned":2282,"▁priv":2283,"▁politely":2284,"▁doesn't":2285,"▁photo":2286,"▁pupp":2287,"▁wedding":2288,"▁lady":2289,"▁appreciate":2290,"▁satisfy":2291,"▁/r/":2292,"▁therap":2293,".wikihow":2294,"ault":2295,"kk":2296,"kward":2297,"mer":2298,"ows":2299,"▁bank":2300,"▁cap":2301,"▁pill":2302,"▁waste":2303,"hed":2304,"▁math":2305,"▁morn":2306,"▁low":2307,"▁lab":2308,"▁lord":2309,"▁reach":2310,"▁stat":2311,"ion.":2312,"ifu":2313,"ury":2314,"▁season":2315,"ers.":2316,"▁lemon":2317,"▁exerc":2318,"▁notice":2319,"▁always":2320,"▁child's":2321,"▁poke":2322,"▁roll":2323,"▁scre":2324,"▁rape":2325,"▁heroin":2326,"▁cold":2327,"▁embr":2328,"▁porno":2329,"▁arms":2330,"▁shooting":2331,"annel":2332,"▁meeting":2333,"▁america":2334,"▁cripp":2335,"ttps":2336,"▁awkward":2337,"▁games":2338,"▁thoughts":2339,"▁tort":2340,"▁techn":2341,"▁pirate":2342,"▁coffee":2343,"▁embrace":2344,"//":2345,"://":2346,"go":2347,"ox":2348,"▁tick":2349,"reddit":2350,"▁fix":2351,"▁bri":2352,"▁bond":2353,"▁cake":2354,"▁pie":2355,"ony":2356,"▁wit":2357,"▁warm":2358,"▁dry":2359,"orate":2360,"▁gri":2361,"▁gard":2362,"omer":2363,"ets":2364,"▁opp":2365,"icle":2366,"▁norm":2367,"stem":2368,"stein":2369,"▁ever":2370,"▁ston":2371,"▁stare":2372,"▁channel":2373,"▁shake":2374,"tern":2375,"uth":2376,"▁likes":2377,"▁condom":2378,"pped":2379,"▁moder":2380,"▁disco":2381,"▁disgu":2382,"▁co-w":2383,"ies.":2384,"▁true":2385,"ired":2386,"ously":2387,"ortal":2388,"anger":2389,"▁quarant":2390,"▁imperson":2391,"▁crack":2392,"▁calc":2393,"▁calm":2394,"▁roommate":2395,"▁animals":2396,"▁country":2397,"▁bully":2398,"▁coworkers":2399,"▁mentally":2400,"▁interest":2401,"▁spirit":2402,"▁jerk":2403,"▁uncomfortable":2404,".wikihow.com/":2405,"ttps://":2406,"▁co-work":2407,"ael":2408,"aur":2409,"aving":2410,"gar":2411,"lock":2412,"▁hour":2413,"▁tom":2414,"▁tooth":2415,"▁astr":2416,"▁cent":2417,"▁page":2418,"▁pizz":2419,"▁well":2420,"▁den":2421,"▁double":2422,"▁mr.":2423,"ising":2424,"▁oper":2425,"icy":2426,"▁lapt":2427,"▁rele":2428,"ility":2429,"▁ug":2430,"▁thing":2431,"opt":2432,"▁deep":2433,"andom":2434,"▁vie":2435,"▁rub":2436,"▁prep":2437,"▁prop":2438,"▁somebody":2439,"▁compl":2440,"▁comfort":2441,"▁enc":2442,"ipe":2443,"▁rad":2444,"▁breath":2445,"▁flash":2446,"ucks":2447,"▁adopt":2448,"▁employ":2449,"▁remind":2450,"rence":2451,"▁apple":2452,"▁apply":2453,"▁personal":2454,"▁ghosts":2455,"▁underw":2456,"▁subtly":2457,"▁system":2458,"▁autistic":2459,"wards":2460,"▁anti-":2461,"▁fresh":2462,"▁sweet":2463,"▁angry":2464,"▁michael":2465,"▁witness":2466,"▁laptop":2467,"▁view":2468,"-man":2469,"aut":2470,"fish":2471,"girl":2472,"ij":2473,"pre":2474,"uation":2475,"▁toy":2476,"▁today":2477,"▁fri":2478,"▁four":2479,"▁ban":2480,"▁both":2481,"▁done":2482,"orc":2483,"▁miss":2484,"▁infl":2485,"ety":2486,"esis":2487,"els":2488,"▁nar":2489,"▁street":2490,"▁kick":2491,"rage":2492,"▁dece":2493,"▁shirt":2494,"▁semen":2495,"antly":2496,"ational":2497,"ests":2498,"▁tea":2499,"▁note":2500,"▁dog's":2501,"▁word":2502,"▁worth":2503,"▁used":2504,"▁offic":2505,"agram":2506,"▁clos":2507,"▁oral":2508,"▁cheap":2509,"▁cheese":2510,"▁time.":2511,"▁mean":2512,"▁canad":2513,"ments":2514,"ounter":2515,"▁emotion":2516,"▁embar":2517,"▁asshole":2518,"▁addict":2519,"▁evidence":2520,"▁identity":2521,"ocal":2522,"▁household":2523,"▁expens":2524,"▁serial":2525,"▁locate":2526,"▁instagram":2527,"ched":2528,"▁imaginary":2529,"▁pregnancy":2530,"▁popular":2531,"▁virginity":2532,"▁quickly":2533,"▁telepathically":2534,"▁flex":2535,"▁valent":2536,"▁approach":2537,"▁morning":2538,"▁garden":2539,"▁embarra":2540,"-e":2541,"-up":2542,"born":2543,"gr":2544,"hip":2545,"no":2546,"▁hang":2547,"inc":2548,"▁sent":2549,"rel":2550,"erb":2551,"▁ful":2552,"▁father":2553,"▁bit":2554,"▁banned":2555,"▁drop":2556,"▁goose":2557,"▁mc":2558,"ision":2559,"▁beach":2560,"▁replace":2561,"▁state":2562,"roat":2563,"roll":2564,"▁mas":2565,"▁maint":2566,"igr":2567,"▁shark":2568,"▁whether":2569,"under":2570,"▁ring":2571,"▁lev":2572,"▁lost":2573,"▁alab":2574,"▁joke":2575,"▁cheating":2576,"▁smug":2577,"▁cream":2578,"▁snack":2579,"▁diar":2580,"▁compet":2581,"▁collect":2582,"▁communist":2583,"▁legs":2584,"▁farts":2585,"▁zomb":2586,"▁entertain":2587,"▁medical":2588,"▁minor":2589,"▁breasts":2590,"▁parrot":2591,"▁salad":2592,"▁sweat":2593,"▁possessed":2594,"▁shoes":2595,"▁defend":2596,"▁roleplay":2597,"▁choke":2598,"▁casually":2599,"▁audition":2600,"▁russian":2601,"▁terrible":2602,"▁syndr":2603,"▁pokemon":2604,"▁ugly":2605,"can":2606,"dies":2607,"ken":2608,"light":2609,"ping":2610,"ring":2611,"to":2612,"▁8":2613,"▁ver":2614,"▁tv":2615,"▁tong":2616,"▁sick":2617,"▁might":2618,"▁mess":2619,"any":2620,"isis":2621,"aring":2622,"▁ostr":2623,"▁lang":2624,"▁now":2625,"▁nud":2626,"rif":2627,"▁elect":2628,"roph":2629,"▁thumb":2630,"irm":2631,"iff":2632,"▁king":2633,"▁dem":2634,"▁via":2635,"▁random":2636,"▁spread":2637,"▁outside":2638,"▁notic":2639,"▁mock":2640,"▁coming":2641,"▁afric":2642,"▁wee":2643,"▁clot":2644,"▁clock":2645,"▁many":2646,"▁looks":2647,"▁activate":2648,"▁flat":2649,"▁perio":2650,"▁boys":2651,"▁can't":2652,"ption":2653,"▁interrog":2654,"▁appropri":2655,"▁10":2656,"▁loved":2657,"▁she's":2658,"▁address":2659,"▁subreddit":2660,"▁memor":2661,"▁coron":2662,"▁expect":2663,"▁liter":2664,"▁transform":2665,"▁hitler":2666,"▁jew":2667,"▁potato":2668,"▁entire":2669,"▁bedroom":2670,"▁urine":2671,"▁smoking":2672,"▁apolog":2673,"▁boobs":2674,"▁pictures":2675,"▁circ":2676,"▁bowl":2677,"▁immigr":2678,"▁japanese":2679,"craft":2680,"▁court":2681,"▁professional":2682,"▁dragon":2683,"▁crippling":2684,"▁torture":2685,"▁quarantine":2686,"▁maintain":2687,"▁syndrome":2688,"▁langu":2689,"iot":2690,"lt":2691,"nect":2692,"port":2693,"sf":2694,"zy":2695,"▁‘":2696,"▁our":2697,"▁hell":2698,"▁hook":2699,"▁hole":2700,"▁fa":2701,"▁full":2702,"▁cell":2703,"▁wood":2704,"▁mut":2705,"▁line":2706,"elly":2707,"▁nu":2708,"▁rev":2709,"▁gets":2710,"igare":2711,"olve":2712,"▁jail":2713,"▁search":2714,"ung":2715,"▁rat":2716,"▁space":2717,"▁sperm":2718,"antic":2719,"▁conj":2720,"▁exorc":2721,"umber":2722,"▁intim":2723,"▁cat's":2724,"▁loss":2725,"▁losing":2726,"▁alph":2727,"▁mods":2728,"▁someone’s":2729,"▁code":2730,"▁web":2731,"inky":2732,"ford":2733,"▁ride":2734,"▁news":2735,"▁track":2736,"▁flav":2737,"▁travel":2738,"▁workplace":2739,"▁school.":2740,"▁assault":2741,"▁appear":2742,"▁home.":2743,"▁switch":2744,"▁swallow":2745,"▁19":2746,"▁donald":2747,"▁detect":2748,"▁stealing":2749,"▁anyone":2750,"▁serve":2751,"▁driving":2752,"▁edition":2753,"▁crime":2754,"▁wait":2755,"▁waifu":2756,"▁prostate":2757,"▁prostitute":2758,"▁erotic":2759,"▁circle":2760,"▁metal":2761,"▁turtle":2762,"▁terrorist":2763,"▁hiding":2764,"ield":2765,"▁pedophile":2766,"▁nazi":2767,"▁astral":2768,"▁valentine":2769,"▁zombie":2770,"▁period":2771,"-in":2772,"boy":2773,"con":2774,"ga":2775,"gl":2776,"hing":2777,"lo":2778,"mm":2779,"mp":2780,"pret":2781,"sw":2782,"yard":2783,"▁taste":2784,"▁tiny":2785,"▁sad":2786,"▁fash":2787,"▁frog":2788,"▁fellow":2789,"▁bribe":2790,"▁cigare":2791,"▁pa":2792,"▁pi":2793,"▁pant":2794,"on.":2795,"▁warn":2796,"▁wolf":2797,"▁mot":2798,"▁mouse":2799,"arian":2800,"▁obs":2801,"▁reduce":2802,"▁educ":2803,"▁ult":2804,"▁chair":2805,"▁china":2806,"ames":2807,"▁defe":2808,"▁fru":2809,"▁lip":2810,"▁conc":2811,"ation.":2812,"▁product":2813,"abet":2814,"allen":2815,"▁molest":2816,"▁uns":2817,"agn":2818,"ips":2819,"▁rapper":2820,"▁traff":2821,"▁key":2822,"▁brit":2823,"ounce":2824,"rench":2825,"▁cred":2826,"▁explore":2827,"▁recy":2828,"▁record":2829,"▁reading":2830,"▁relig":2831,"▁subm":2832,"▁grade":2833,"▁racial":2834,"▁sleeping":2835,"▁monkey":2836,"▁serv":2837,"▁report":2838,"▁transition":2839,"▁veget":2840,"▁depressed":2841,"ches":2842,"▁harass":2843,"▁else":2844,"▁missing":2845,"▁english":2846,"▁massive":2847,"▁return":2848,"▁coworker":2849,"▁australian":2850,"▁complete":2851,"▁sandw":2852,"▁thanks":2853,"▁judge":2854,"▁degree":2855,"▁version":2856,"▁follow":2857,"▁dimension":2858,"▁exercise":2859,"▁techni":2860,"▁disguise":2861,"▁pizza":2862,"▁embarrass":2863,"bing":2864,"cies":2865,"do":2866,"don":2867,"e.":2868,"giving":2869,"hy":2870,"just":2871,"ray":2872,"sd":2873,"vest":2874,"▁hur":2875,"▁tow":2876,"▁ach":2877,"inj":2878,"▁sens":2879,"▁french":2880,"▁bang":2881,"▁bomb":2882,"hel":2883,"▁du":2884,"▁dild":2885,"itive":2886,"▁gar":2887,"▁gro":2888,"lex":2889,"alia":2890,"omy":2891,"ars":2892,"▁infect":2893,"▁ok":2894,"▁late":2895,"▁lower":2896,"▁large":2897,"▁story":2898,"▁throat":2899,"irus":2900,"irty":2901,"urance":2902,"▁challen":2903,"▁telling":2904,"▁vacc":2905,"pping":2906,"▁isn't":2907,"usive":2908,"iled":2909,"▁dog.":2910,"▁altern":2911,"▁knock":2912,"▁proud":2913,"▁finding":2914,"▁close":2915,"▁scream":2916,"▁meal":2917,"▁working":2918,"▁brush":2919,"▁quit":2920,"ourn":2921,"▁remain":2922,"▁\"the":2923,"aves":2924,"▁swim":2925,"▁snow":2926,"▁pets":2927,"▁funny":2928,"▁recover":2929,"▁crisis":2930,"▁butter":2931,"box":2932,"▁confirm":2933,"▁special":2934,"▁couch":2935,"▁they'":2936,"▁says":2937,"▁orgy":2938,"coming":2939,"▁paying":2940,"▁2020":2941,"▁superior":2942,"▁study":2943,"▁needs":2944,"▁soup":2945,"▁object":2946,"▁minut":2947,"▁teenage":2948,"▁enemy":2949,"oined":2950,"▁bullied":2951,"▁epstein":2952,"aaaaaaaa":2953,"▁2019":2954,"▁existence":2955,"▁weekend":2956,"▁costume":2957,"▁terms":2958,"ography":2959,"▁chinese":2960,"▁voice":2961,"▁telekinesis":2962,"▁dentist":2963,"▁emoji":2964,"▁receive":2965,"▁normal":2966,"▁diarr":2967,"▁tongue":2968,"▁clothes":2969,"▁language":2970,"▁fashion":2971,"▁cigarett":2972,"▁thanksgiving":2973,"-c":2974,"bl":2975,"back":2976,"gen":2977,"ium":2978,"mother":2979,"pect":2980,"▁hist":2981,"▁hint":2982,"▁todd":2983,"ourage":2984,"▁sac":2985,"▁fra":2986,"▁bon":2987,"▁bell":2988,"▁bag":2989,"▁cart":2990,"▁corn":2991,"▁cash":2992,"▁pap":2993,"▁pills":2994,"▁wal":2995,"▁wish":2996,"athe":2997,"itiz":2998,"ley":2999,"arate":3000,"▁lon":3001,"▁lif":3002,"▁lunch":3003,"aces":3004,"▁beast":3005,"▁beaut":3006,"▁recre":3007,"▁reenact":3008,"▁stom":3009,"eding":3010,"urf":3011,"▁shave":3012,"▁supre":3013,"▁sport":3014,"▁friend.":3015,"▁pred":3016,"▁boot":3017,"plant":3018,"▁disl":3019,"astic":3020,"▁he's":3021,"▁worst":3022,"ards":3023,"▁manage":3024,"▁smurf":3025,"▁trap":3026,"▁content":3027,"▁budd":3028,"▁aggress":3029,"▁diy":3030,"▁amaz":3031,"▁grab":3032,"▁finish":3033,"▁corp":3034,"▁bigger":3035,"▁insurance":3036,"▁30":3037,"▁fantasy":3038,"▁extre":3039,"▁jeff":3040,"▁daddy":3041,"▁button":3042,"▁victims":3043,"▁advice":3044,"▁squir":3045,"▁basement":3046,"legal":3047,"▁morse":3048,"▁wonder":3049,"▁viol":3050,"ypse":3051,"▁australia":3052,"▁schedu":3053,"▁laser":3054,"▁juice":3055,"▁straight":3056,"▁mustache":3057,"▁piece":3058,"ocalypse":3059,"▁alabama":3060,"▁sandwich":3061,"-sh":3062,"-sp":3063,"ec":3064,"ket":3065,"lph":3066,"ners":3067,"o.":3068,"off":3069,"pa":3070,"post":3071,"ron":3072,"sc":3073,"ta":3074,"tain":3075,"▁il":3076,"▁ty":3077,"▁tie":3078,"▁tatt":3079,"▁tot":3080,"reot":3081,"▁far":3082,"▁five":3083,"▁bal":3084,"▁pic":3085,"▁wel":3086,"▁dire":3087,"▁gone":3088,"▁mug":3089,"▁ly":3090,"▁land":3091,"▁beer":3092,"▁ninj":3093,"▁answ":3094,"▁requ":3095,"▁stuck":3096,"▁stup":3097,"iday":3098,"urch":3099,"▁dolph":3100,"▁choc":3101,"▁church":3102,"olution":3103,"▁spank":3104,"▁convert":3105,"▁friend’s":3106,"▁friends.":3107,"umc":3108,"▁bodies":3109,"▁lob":3110,"▁comb":3111,"▁blame":3112,"izing":3113,"▁united":3114,"▁he’s":3115,"▁afford":3116,"▁image":3117,"▁cheat":3118,"▁mexic":3119,"▁trash":3120,"▁life.":3121,"▁acid":3122,"▁backyard":3123,"osexual":3124,"ails":3125,"▁stereot":3126,"▁clear":3127,"▁she’s":3128,"▁feelings":3129,"▁member":3130,"▁seeing":3131,"▁shitty":3132,"appropri":3133,"▁cosby":3134,"iously":3135,"▁signific":3136,"▁birds":3137,"▁profit":3138,"▁self-":3139,"▁virus":3140,"▁sym":3141,"▁harvest":3142,"▁selling":3143,"▁autism":3144,"▁forever":3145,"▁crazy":3146,"▁matrix":3147,"ologist":3148,"▁restaur":3149,"▁engage":3150,"▁massage":3151,"▁easily":3152,"▁cause":3153,"▁nipple":3154,"▁2018":3155,"▁strangers":3156,"▁universe":3157,"-law":3158,"▁holiday":3159,"▁model":3160,"▁creepy":3161,"▁romantic":3162,"▁basic":3163,"▁position":3164,"▁candy":3165,"▁suspicious":3166,"▁release":3167,"▁anti-v":3168,"iju":3169,"▁ostrich":3170,"sfw":3171,"▁conjoined":3172,"▁defeat":3173,"▁recycle":3174,"▁achieve":3175,"▁diarrhe":3176,"▁history":3177,"▁recreate":3178,"▁squirrel":3179,"▁schedule":3180,"▁tattoo":3181,"▁chocolate":3182,"11":3183,"aff":3184,"bers":3185,"d.":3186,"dro":3187,"ered":3188,"gers":3189,"til":3190,"▁$":3191,"▁[":3192,"▁tre":3193,"▁tape":3194,"▁https://":3195,"▁yell":3196,"▁yog":3197,"erve":3198,"▁pan":3199,"▁wake":3200,"▁would":3201,"▁danger":3202,"▁dirty":3203,"▁gerb":3204,"▁mach":3205,"▁inappropri":3206,"▁oil":3207,"ician":3208,"▁bee":3209,"veal":3210,"▁reb":3211,"▁reveal":3212,"ilt":3213,"illed":3214,"ids":3215,"▁max":3216,"imp":3217,"▁deform":3218,"▁deaf":3219,"▁select":3220,"▁vom":3221,"▁vill":3222,"▁suit":3223,"▁sugg":3224,"▁liz":3225,"▁conce":3226,"ably":3227,"▁bob":3228,"▁nothing":3229,"▁moon":3230,"▁child’s":3231,"▁sex.":3232,"dden":3233,"▁offend":3234,"▁pose":3235,"ages":3236,"▁road":3237,"▁people.":3238,"▁handjob":3239,"parent":3240,"▁cheer":3241,"▁sock":3242,"▁quiet":3243,"▁advert":3244,"avirus":3245,"▁killing":3246,"▁diagn":3247,"▁amp":3248,"▁gradu":3249,"▁seek":3250,"▁army":3251,"apping":3252,"▁invest":3253,"▁invite":3254,"lets":3255,"▁legally":3256,"▁calls":3257,"▁longer":3258,"▁instantly":3259,"▁opin":3260,"▁drawing":3261,"▁painting":3262,"▁summer":3263,"anny":3264,"▁neighborhood":3265,"▁standing":3266,"▁effic":3267,"▁political":3268,"▁resist":3269,"ennis":3270,"▁situation":3271,"▁deli":3272,"▁telepathy":3273,"▁hostage":3274,"▁admit":3275,"!!!!":3276,"▁laid":3277,"▁assassinate":3278,"▁debt":3279,"▁browse":3280,"▁society":3281,"▁idiot":3282,"▁lemonade":3283,"▁stoned":3284,"▁discover":3285,"▁calculate":3286,"▁closet":3287,"▁competition":3288,"▁coronavirus":3289,"▁credit":3290,"▁vegetable":3291,"▁sacrif":3292,"▁stupid":3293,"▁significant":3294,"▁restaurant":3295,"▁gerbil":3296,"▁suggest":3297,"**":3298,"bi":3299,"cend":3300,"ges":3301,"o-":3302,"ode":3303,"so":3304,"▁ess":3305,"▁tac":3306,"▁hack":3307,"▁hunt":3308,"▁toget":3309,"▁si":3310,"▁sar":3311,"▁sant":3312,"ern":3313,"ery":3314,"▁fiction":3315,"▁ble":3316,"▁bun":3317,"▁bub":3318,"▁bds":3319,"▁ca":3320,"▁cous":3321,"▁case":3322,"▁cute":3323,"▁citiz":3324,"▁py":3325,"▁pump":3326,"▁danc":3327,"▁dys":3328,"▁gas":3329,"▁german":3330,"▁mart":3331,"▁mine":3332,"▁inh":3333,"▁lure":3334,"▁lsd":3335,"▁net":3336,"star":3337,"vered":3338,"▁stone":3339,"▁stret":3340,"▁states":3341,"▁shut":3342,"▁whil":3343,"▁jaw":3344,"▁suc":3345,"▁spon":3346,"▁connect":3347,"ists":3348,"▁press":3349,"▁leaving":3350,"▁exec":3351,"▁pron":3352,"▁words":3353,"▁imitate":3354,"▁score":3355,"▁manager":3356,"▁jokes":3357,"▁ground":3358,"▁partic":3359,"▁guests":3360,"▁brown":3361,"▁planet":3362,"▁import":3363,"▁whole":3364,"▁days":3365,"▁asks":3366,"▁18":3367,"▁1st":3368,"osis":3369,"▁slave":3370,"ocate":3371,"▁guys":3372,"▁grandmother":3373,"clear":3374,"▁murde":3375,"▁running":3376,"▁fantasies":3377,"▁potential":3378,"▁football":3379,"▁robber":3380,"▁pige":3381,"▁obtain":3382,"▁broken":3383,"▁design":3384,"▁advances":3385,"▁hyp":3386,"▁fanf":3387,"▁delicious":3388,"▁flesh":3389,"▁stripper":3390,"iety":3391,"▁belly":3392,"▁stranger":3393,"▁seconds":3394,"▁accidentally":3395,"▁werew":3396,"▁completely":3397,"▁kidnap":3398,"▁bottle":3399,"▁natural":3400,"▁modern":3401,"▁impersonate":3402,"▁co-worker":3403,"▁deny":3404,"▁december":3405,"▁interrogate":3406,"▁apologize":3407,"▁circumc":3408,"▁nuclear":3409,"▁embarrassing":3410,"▁they're":3411,"▁objects":3412,"▁spanking":3413,"▁anti-vax":3414,"ijuana":3415,"▁diarrhea":3416,"▁sacrifice":3417,"▁bdsm":3418,"&amp":3419,"dition":3420,"hom":3421,"hov":3422,"iens":3423,"ké":3424,"lor":3425,"ms":3426,"made":3427,"na":3428,"rate":3429,"sel":3430,"wart":3431,"▁-":3432,"▁tennis":3433,"▁hall":3434,"▁hire":3435,"oulder":3436,"▁san":3437,"▁sight":3438,"rey":3439,"erate":3440,"▁furn":3441,"▁furb":3442,"▁bald":3443,"▁dam":3444,"itter":3445,"oms":3446,"▁insp":3447,"▁opt":3448,"▁older":3449,"▁nor":3450,"▁nick":3451,"▁anx":3452,"▁anus":3453,"▁re-":3454,"iling":3455,"ilia":3456,"oogle":3457,"edi":3458,"▁killed":3459,"child":3460,"▁deer":3461,"▁shoulder":3462,"ceed":3463,"ads":3464,"verage":3465,"und":3466,"▁rout":3467,"▁libr":3468,"▁lips":3469,"▁spo":3470,"ulation":3471,"ist.":3472,"▁ups":3473,"▁plastic":3474,"aboo":3475,"▁cat’s":3476,"▁alarm":3477,"▁knife":3478,"▁blend":3479,"▁discret":3480,"ement":3481,"empt":3482,"▁child.":3483,"▁knowing":3484,"▁pock":3485,"essor":3486,"▁weap":3487,"▁scam":3488,"▁raid":3489,"ity.":3490,"▁aven":3491,"▁smart":3492,"▁smash":3493,"▁flu":3494,"▁quality":3495,"▁writing":3496,"▁turning":3497,"▁who's":3498,"▁reality":3499,"▁homemade":3500,"▁sniff":3501,"▁diaper":3502,"▁relax":3503,"▁respons":3504,"▁bestiality":3505,"▁party.":3506,"▁pretty":3507,"▁memes":3508,"▁armp":3509,"▁night.":3510,"ism.":3511,"▁themed":3512,"▁protest":3513,"▁ears":3514,"▁instru":3515,"▁hitman":3516,"▁vision":3517,"▁happen":3518,"▁jeal":3519,"▁jehov":3520,"▁impression":3521,"▁harry":3522,"▁elim":3523,"▁consent":3524,"▁enter":3525,"▁bathe":3526,"▁neckbe":3527,"▁evening":3528,"000":3529,"▁crim":3530,"▁freak":3531,"▁apocalypse":3532,"▁refuse":3533,"▁movement":3534,"▁shoe":3535,"▁psychic":3536,"▁respects":3537,"▁alcoholic":3538,"▁ideas":3539,"▁boring":3540,"▁naturally":3541,"▁times":3542,"▁organize":3543,"▁slowly":3544,"▁pillow":3545,"▁hours":3546,"▁underwear":3547,"▁canadian":3548,"▁addicted":3549,"▁concert":3550,"▁british":3551,"▁minutes":3552,"▁stomach":3553,"▁illegal":3554,"▁ninja":3555,"▁yoga":3556,"▁machine":3557,"▁conceal":3558,"▁santa":3559,"▁whilst":3560,"▁sponge":3561,"▁werewolf":3562,"&amp;":3563,"kémon":3564,"-1":3565,"-fl":3566,"ai":3567,"aim":3568,"bucks":3569,"den":3570,"des":3571,"ease":3572,"face":3573,"fair":3574,"gger":3575,"jac":3576,"lim":3577,"m.wikihow.com/":3578,"uge":3579,"wash":3580,"zz":3581,"▁ted":3582,"▁tast":3583,"▁tax":3584,"▁towards":3585,"▁sink":3586,"▁session":3587,"era":3588,"ergen":3589,"▁fu":3590,"▁buck":3591,"▁cro":3592,"▁coo":3593,"▁portal":3594,"▁wrest":3595,"atives":3596,"▁dig":3597,"▁dut":3598,"iture":3599,"orid":3600,"▁gum":3601,"▁mer":3602,"▁mel":3603,"▁mist":3604,"ises":3605,"ised":3606,"etic":3607,"eline":3608,"▁nic":3609,"▁eu":3610,"▁euth":3611,"▁ejac":3612,"idate":3613,"▁thot":3614,"▁mail":3615,"iment":3616,"rap":3617,"rain":3618,"▁chill":3619,"▁ate":3620,"▁van":3621,"▁vol":3622,"▁negot":3623,"▁cat.":3624,"▁cathol":3625,"▁alleg":3626,"▁aliens":3627,"▁peace":3628,"▁heat":3629,"▁heav":3630,"▁pokémon":3631,"▁arouse":3632,"▁yourself.":3633,"▁enl":3634,"▁env":3635,"▁client":3636,"▁scrat":3637,"▁friendship":3638,"▁breathe":3639,"▁chem":3640,"▁actual":3641,"▁flight":3642,"▁traum":3643,"▁trade":3644,"▁schiz":3645,"▁soap":3646,"▁sav":3647,"▁interpret":3648,"▁realise":3649,"▁homeless":3650,"▁asking":3651,"▁mario":3652,"▁bukk":3653,"▁crit":3654,"▁amount":3655,"▁carry":3656,"▁posts":3657,"▁members":3658,"▁grass":3659,"▁convention":3660,"▁couple":3661,"apped":3662,"▁everything":3663,"lete":3664,"▁themsel":3665,"▁monster":3666,"▁insert":3667,"▁zone":3668,"▁artist":3669,"▁cooking":3670,"▁steps":3671,"▁neighbor's":3672,"▁elder":3673,"strate":3674,"▁incon":3675,"▁urge":3676,"ophren":3677,"▁apart":3678,"▁boob":3679,"▁solve":3680,"▁stalking":3681,"▁married":3682,"▁mental":3683,"▁glasses":3684,"▁jackson":3685,"▁spider-man":3686,"▁didn't":3687,"▁basket":3688,"▁voices":3689,"www":3690,"▁multip":3691,"▁downvote":3692,"▁overlords":3693,"▁screen":3694,"▁encourage":3695,"▁radio":3696,"▁expenses":3697,"▁mask":3698,"▁noticing":3699,"▁literally":3700,"▁revolution":3701,"▁ultimate":3702,"▁fruit":3703,"▁traffic":3704,"▁dildo":3705,"▁challenge":3706,"▁dolphin":3707,"▁taco":3708,"▁cousin":3709,"▁citizen":3710,"▁minecraft":3711,"▁stretch":3712,"▁discretely":3713,"▁jealous":3714,"▁jehovah":3715,"▁euthan":3716,"\".":3717,"ait":3718,"bri":3719,"cut":3720,"cast":3721,"ex":3722,"ees":3723,"ead":3724,"fer":3725,"fast":3726,"hub":3727,"iest":3728,"ially":3729,"mem":3730,"night":3731,"nger":3732,"rito":3733,"ton":3734,"val":3735,"we":3736,"yl":3737,"▁hon":3738,"▁hip":3739,"▁tour":3740,"inated":3741,"▁sense":3742,"▁fro":3743,"▁counter":3744,"▁pes":3745,"▁pics":3746,"atrix":3747,"▁da":3748,"▁dong":3749,"itation":3750,"oring":3751,"▁goth":3752,"▁mac":3753,"▁mum":3754,"ished":3755,"▁loo":3756,"▁lick":3757,"acu":3758,"▁nur":3759,"▁nail":3760,"stick":3761,"ries":3762,"▁equ":3763,"illy":3764,"▁stress":3765,"▁stock":3766,"▁makes":3767,"▁haunt":3768,"▁wheel":3769,"ands":3770,"unction":3771,"▁tells":3772,"▁sugar":3773,"▁spit":3774,"▁const":3775,"▁out.":3776,"▁up.":3777,"▁abusive":3778,"estyle":3779,"▁plants":3780,"▁prov":3781,"ablish":3782,"action":3783,"▁dog’s":3784,"▁alive":3785,"plane":3786,"▁mob":3787,"▁mov":3788,"▁mode":3789,"thy":3790,"▁disp":3791,"▁unc":3792,"empl":3793,"▁enh":3794,"▁weak":3795,"▁aren't":3796,"ague":3797,"▁roast":3798,"▁dr.":3799,"▁sciss":3800,"ipate":3801,"▁man.":3802,"▁started":3803,"▁guide":3804,"▁work.":3805,"▁hero":3806,"▁attempt":3807,"▁emergen":3808,"▁owner":3809,"▁contempl":3810,"▁snap":3811,"▁pornhub":3812,"▁breaking":3813,"▁breakfast":3814,"phant":3815,"▁diap":3816,"▁diary":3817,"▁decline":3818,"▁humans":3819,"▁confident":3820,"anced":3821,"▁anything":3822,"▁demonstrate":3823,"▁eyebr":3824,"▁fighting":3825,"▁instead":3826,"▁driver":3827,"▁dominatrix":3828,"▁passive":3829,"▁potter":3830,"▁forest":3831,"▁foreplay":3832,"▁broke":3833,"▁thanos":3834,"▁behave":3835,"▁result":3836,"▁desp":3837,"▁dreams":3838,"▁reflect":3839,"▁gamer":3840,"▁attractive":3841,"▁floating":3842,"▁laughing":3843,"▁students":3844,"▁stalker":3845,"▁difference":3846,"▁promotion":3847,"▁shopping":3848,"▁elephant":3849,"▁kitten":3850,"▁nerd":3851,"▁scheme":3852,"▁eggs":3853,"▁silence":3854,"▁dying":3855,"▁absol":3856,"▁puppy":3857,"▁therapy":3858,"▁ticket":3859,"▁edition)":3860,"▁service":3861,"▁beastiality":3862,"▁sports":3863,"▁predator":3864,"▁answer":3865,"drohom":3866,"▁lizard":3867,"▁diagnose":3868,"▁efficient":3869,"▁together":3870,"▁bubble":3871,"▁succeed":3872,"▁pigeon":3873,"▁furniture":3874,"▁library":3875,"▁pocket":3876,"▁catholic":3877,"▁schizophren":3878,"▁bukkake":3879,"▁elderly":3880,"bul":3881,"cri":3882,"fit":3883,"gie":3884,"gender":3885,"ka":3886,"life":3887,"mat":3888,"met":3889,"mart":3890,"nes":3891,"nam":3892,"nsfw":3893,"racial":3894,"s)":3895,"wat":3896,"▁ing":3897,"▁irl":3898,"▁tren":3899,"▁trees":3900,"▁tits":3901,"▁horn":3902,"▁hug":3903,"inity":3904,"▁sold":3905,"rer":3906,"real":3907,"▁fer":3908,"▁bible":3909,"▁pin":3910,"▁push":3911,"▁wipe":3912,"hen":3913,"hett":3914,"▁dw":3915,"▁dat":3916,"▁dumb":3917,"itar":3918,"▁gear":3919,"▁mood":3920,"▁mort":3921,"inger":3922,"isk":3923,"▁inn":3924,"icu":3925,"▁lic":3926,"▁lion":3927,"▁lines":3928,"▁beard":3929,"▁national":3930,"▁number":3931,"▁reverse":3932,"▁ones":3933,"ural":3934,"▁ket":3935,"▁habit":3936,"▁doc":3937,"▁chad":3938,"▁chang":3939,"▁shr":3940,"▁jim":3941,"geon":3942,"▁is.":3943,"▁isn’t":3944,"▁upcoming":3945,"▁propose":3946,"ability":3947,"aping":3948,"▁lock":3949,"▁comed":3950,"▁dish":3951,"▁disable":3952,"▁until":3953,"▁here":3954,"ief":3955,"▁affair":3956,"▁arr":3957,"force":3958,"▁joker":3959,"▁bread":3960,"▁starts":3961,"shit":3962,"▁florid":3963,"▁novel":3964,"bert":3965,"▁guard":3966,"▁socc":3967,"▁brand":3968,"▁attend":3969,"▁adjust":3970,"▁marijuana":3971,"▁faceless":3972,"▁12":3973,"▁breakup":3974,"▁redditor":3975,"....":3976,"▁speed":3977,"▁feeling":3978,"▁starbucks":3979,"▁again.":3980,"▁horror":3981,"rope":3982,"▁signal":3983,"▁trigger":3984,"▁insult":3985,"▁repost":3986,"▁balloon":3987,"▁glory":3988,"▁install":3989,"▁called":3990,"▁present":3991,"▁brag":3992,"▁visiting":3993,"▁50":3994,"▁consider":3995,"▁crash":3996,"▁airport":3997,"▁vampires":3998,"▁teenager":3999,"▁misunder":4000,"▁salt":4001,"▁solid":4002,"▁listening":4003,"ucked":4004,"▁touching":4005,"▁strip":4006,"▁x-":4007,"▁burrito":4008,"▁univers":4009,"▁promote":4010,"▁lesson":4011,"▁assassination":4012,"▁information":4013,"▁fisting":4014,"▁window":4015,"▁browsing":4016,"▁geor":4017,"▁establish":4018,"▁customer":4019,"▁puppet":4020,"▁therapist":4021,"▁screw":4022,"▁interesting":4023,"▁witnesses":4024,"▁officer":4025,"▁meaning":4026,"▁flavor":4027,"▁paul":4028,"▁technique":4029,"▁cartoon":4030,"▁welcome":4031,"▁direct":4032,"▁mexican":4033,"▁inappropriate":4034,"▁advertise":4035,"▁ampute":4036,"▁deliver":4037,"▁participate":4038,"▁halluc":4039,"▁anxiety":4040,"▁eliminate":4041,"▁neckbeard":4042,"-flight":4043,"▁negotiate":4044,"▁scratch":4045,"▁pesky":4046,"▁movies":4047,"▁scissors":4048,"▁emergency":4049,"▁contemplate":4050,"▁soccer":4051,"/11":4052,"bow":4053,"gust":4054,"iation":4055,"iper":4056,"ming":4057,"mates":4058,"ses":4059,"ues":4060,"uction":4061,"with":4062,"walk":4063,"▁ow":4064,"▁ip":4065,"▁tail":4066,"▁hill":4067,"▁honey":4068,"▁huge":4069,"▁aim":4070,"ino":4071,"▁yet":4072,"▁yes":4073,"▁york":4074,"▁sen":4075,"▁sor":4076,"▁sour":4077,"▁six":4078,"▁fab":4079,"▁fbi":4080,"▁pra":4081,"▁pers":4082,"▁pimp":4083,"▁dab":4084,"order":4085,"▁gently":4086,"▁google":4087,"▁mate":4088,"▁mix":4089,"ishes":4090,"▁in-flight":4091,"▁oce":4092,"icc":4093,"icles":4094,"▁lack":4095,"▁nap":4096,"ster.":4097,"▁rese":4098,"▁rent":4099,"▁stab":4100,"▁stair":4101,"▁mag":4102,"iful":4103,"▁kink":4104,"▁karate":4105,"chool":4106,"change":4107,"▁makeup":4108,"▁shap":4109,"anda":4110,"▁seat":4111,"▁severed":4112,"▁vul":4113,"▁asked":4114,"▁ascend":4115,"▁sudden":4116,"▁that’s":4117,"▁spook":4118,"▁spag":4119,"▁spoon":4120,"▁spray":4121,"ulous":4122,"▁prem":4123,"▁exchange":4124,"▁produce":4125,"▁tex":4126,"▁board":4127,"ains":4128,"▁comes":4129,"▁comment":4130,"▁comfortable":4131,"▁disgust":4132,"▁unlock":4133,"▁hear":4134,"quet":4135,"▁item":4136,"▁worship":4137,"▁offender":4138,"▁goes":4139,"▁arrow":4140,"agon":4141,"▁handsh":4142,"▁rip":4143,"iance":4144,"▁orig":4145,"▁trust":4146,"▁chew":4147,"▁chest":4148,"▁dealer":4149,"▁nobody":4150,"ased":4151,"iven":4152,"▁saw":4153,"▁said":4154,"▁emot":4155,"▁day.":4156,"▁homework":4157,"▁swear":4158,"▁pornography":4159,"▁personality":4160,"▁explos":4161,"▁r/p":4162,"▁r/hy":4163,"▁doctors":4164,"ission":4165,"▁company":4166,"▁shit.":4167,"▁public.":4168,"▁picking":4169,"▁accent":4170,"▁game.":4171,"▁racially":4172,"▁grandparent":4173,"▁signals":4174,"▁farting":4175,"▁organs":4176,"▁transgender":4177,"chen":4178,"▁speaking":4179,"▁strong":4180,"▁consum":4181,"▁priest":4182,"▁airplane":4183,"▁match":4184,"ledge":4185,"▁sucking":4186,"▁books":4187,"-word":4188,"▁culture":4189,"▁sitting":4190,"▁argue":4191,"▁baseball":4192,"▁homosexual":4193,"▁choices":4194,"▁existential":4195,"▁admin":4196,"▁admire":4197,"▁device":4198,"▁interested":4199,"ypes":4200,"▁later":4201,"▁latest":4202,"▁cycl":4203,"▁kitchen":4204,"▁cannibalism":4205,"▁idea":4206,"▁projection":4207,"▁captain":4208,"▁poorly":4209,"▁privile":4210,"▁capital":4211,"▁banana":4212,"▁emotionally":4213,"▁fulf":4214,"▁mcdon":4215,"▁levitate":4216,"▁smuggle":4217,"▁verb":4218,"▁african":4219,"▁expectations":4220,"▁jewish":4221,"▁mutant":4222,"▁alphabet":4223,"▁valentine's":4224,"-in-law":4225,"▁religion":4226,"▁grocer":4227,"▁cigarette":4228,"▁lonely":4229,"▁beautiful":4230,"▁buddy":4231,"▁extreme":4232,"▁totally":4233,"▁dangerous":4234,"▁maxim":4235,"▁vomit":4236,"▁vegetables":4237,"▁important":4238,"▁furby":4239,"▁upset":4240,"▁enlarge":4241,"▁themselves":4242,"▁basketball":4243,"www.wikihow.com/":4244,"▁multiple":4245,"acuum":4246,"▁diapers":4247,"▁misunderstand":4248,"▁ocean":4249,"▁research":4250,"▁spaghett":4251,",000":4252,"-y":4253,"-st":4254,"-off":4255,"0s":4256,"aid":4257,"bon":4258,"bang":4259,"cour":4260,"da":4261,"down":4262,"dress":4263,"ey":4264,"ech":4265,"eem":4266,"fuck":4267,"gre":4268,"game":4269,"hog":4270,"ii":4271,"iat":4272,"iac":4273,"jo":4274,"lam":4275,"list":4276,"mes":4277,"mark":4278,"not":4279,"oe":4280,"ody":4281,"pet":4282,"rom":4283,"ration":4284,"tra":4285,"uri":4286,"uct":4287,"wood":4288,"zen":4289,"••":4290,"▁#":4291,"▁q":4292,"▁eth":4293,"▁tall":4294,"▁tamp":4295,"▁hed":4296,"▁hop":4297,"▁hob":4298,"▁hipp":4299,"▁tonight":4300,"▁aqu":4301,"▁yard":4302,"▁sib":4303,"▁south":4304,"erial":4305,"▁fill":4306,"▁fine":4307,"▁fond":4308,"▁fair":4309,"▁fox":4310,"▁bite":4311,"▁born":4312,"▁bise":4313,"▁pair":4314,"onic":4315,"▁wine":4316,"▁witch":4317,"▁dro":4318,"ites":4319,"itating":4320,"ora":4321,"orb":4322,"orter":4323,"orph":4324,"▁mount":4325,"▁mourn":4326,"anch":4327,"▁inse":4328,"▁inject":4329,"▁od":4330,"▁lot":4331,"▁loud":4332,"▁lung":4333,"acist":4334,"acked":4335,"▁beg":4336,"▁bees":4337,"▁numb":4338,"▁nature":4339,"sters":4340,"ril":4341,"ried":4342,"▁ease":4343,"▁easter":4344,"ilities":4345,"▁stage":4346,"▁stash":4347,"▁stole":4348,"▁forgot":4349,"▁thicc":4350,"endar":4351,"▁magn":4352,"▁kind":4353,"iger":4354,"elling":4355,"opath":4356,"oli":4357,"▁whale":4358,"▁jug":4359,"utely":4360,"▁that's":4361,"gehog":4362,"▁span":4363,"▁spid":4364,"ulk":4365,"▁outdo":4366,"▁upd":4367,"▁boomer":4368,"▁alb":4369,"▁comic":4370,"▁compare":4371,"▁common":4372,"▁display":4373,"ured":4374,"▁it.":4375,"▁webs":4376,"aggy":4377,"▁roof":4378,"ored":4379,"▁hand.":4380,"iped":4381,"▁man’s":4382,"▁you'll":4383,"▁rain":4384,"▁rage":4385,"▁tran":4386,"▁trouble":4387,"▁truth":4388,"▁grind":4389,"▁trapped":4390,"▁perman":4391,"▁across":4392,"▁guess":4393,"▁guitar":4394,"▁property":4395,"▁soft":4396,"▁works":4397,"▁workout":4398,"▁herp":4399,"▁saving":4400,"▁girlfriends":4401,"▁girlfriend’s":4402,"▁keeping":4403,"▁goodby":4404,"▁intercour":4405,"▁thrones":4406,"▁realm":4407,"▁sniper":4408,"▁baby's":4409,"▁face.":4410,"▁steve":4411,"▁person.":4412,"▁cops":4413,"brate":4414,"▁13":4415,"▁crow":4416,"▁reddit.":4417,"▁boyfriend's":4418,"▁decorate":4419,"▁winter":4420,"bob":4421,"▁species":4422,"▁cars":4423,"▁rule":4424,"▁furson":4425,"▁putting":4426,"▁access":4427,"▁accord":4428,"▁waterboard":4429,"▁sleepover":4430,"▁penis.":4431,"▁growing":4432,"▁repair":4433,"▁fart.":4434,"▁transplant":4435,"▁zoo":4436,"▁calendar":4437,"▁prescri":4438,"▁arts":4439,"▁dinner.":4440,"▁forehead":4441,"▁media":4442,"▁incor":4443,"▁favour":4444,"▁supply":4445,"▁suppress":4446,"▁genie":4447,"▁matter":4448,"▁mini":4449,"▁discrim":4450,"▁fired":4451,"▁walking":4452,"▁falling":4453,"▁aware":4454,"▁hydr":4455,"▁possible":4456,"▁raped":4457,"▁purch":4458,"▁erase":4459,"▁epis":4460,"▁won't":4461,"▁haters":4462,"▁casual":4463,"▁devil":4464,"▁unique":4465,"▁titan":4466,"▁points":4467,"▁9/11":4468,"▁spirits":4469,"▁camel":4470,"▁camera":4471,"▁windows":4472,"▁limbs":4473,"▁custom":4474,"▁socially":4475,"▁emojis":4476,"suit":4477,"▁/r/disneyvacation":4478,"▁roller":4479,"▁century":4480,"▁narut":4481,"ground":4482,"▁weeaboo":4483,"▁education":4484,"▁infection":4485,"▁toddler":4486,"▁boner":4487,"▁supreme":4488,"▁jeffrey":4489,"▁type":4490,"▁deformed":4491,"▁opinion":4492,"▁sarah":4493,"▁pumpkin":4494,"▁pronounce":4495,"▁weapon":4496,"▁armpit":4497,"▁teddy":4498,"▁critic":4499,"memes":4500,"▁absolutely":4501,"drohomies":4502,"▁disabled":4503,"▁florida":4504,"▁emotions":4505,"▁spaghetti":4506,"▁hedgehog":4507,"▁bisexual":4508,"▁goodbye":4509,"▁intercourse":4510,").":4511,"-n":4512,"-way":4513,"-play":4514,"bur":4515,"cil":4516,"dog":4517,"gue":4518,"gram":4519,"ham":4520,"k.":4521,"ku":4522,"more":4523,"nic":4524,"oly":4525,"phe":4526,"rd":4527,"rit":4528,"uke":4529,"vacc":4530,"wh":4531,"xer":4532,"▁.":4533,"▁et":4534,"▁hog":4535,"▁tou":4536,"▁yellow":4537,"▁ske":4538,"▁fed":4539,"▁fell":4540,"▁fest":4541,"▁foc":4542,"▁field":4543,"▁bug":4544,"▁bought":4545,"▁bene":4546,"▁cage":4547,"▁cable":4548,"▁poo":4549,"▁pink":4550,"▁pian":4551,"▁pony":4552,"onde":4553,"▁west":4554,"▁wick":4555,"▁wiz":4556,"▁wiki":4557,"ater":4558,"▁dan":4559,"▁doo":4560,"▁dun":4561,"itor":4562,"▁gf":4563,"▁golf":4564,"▁mating":4565,"▁mute":4566,"issing":4567,"▁ine":4568,"▁inher":4569,"▁oc":4570,"▁oly":4571,"icit":4572,"▁laz":4573,"▁nam":4574,"▁anger":4575,"▁erect":4576,"ots":4577,"▁std":4578,"▁stim":4579,"▁stren":4580,"sexual":4581,"▁thum":4582,"ooby":4583,"rab":4584,"igan":4585,"cher":4586,"chan":4587,"▁chi":4588,"▁champ":4589,"▁chances":4590,"ops":4591,"ament":4592,"▁shock":4593,"▁jizz":4594,"▁james":4595,"▁sea":4596,"une":4597,"▁vs":4598,"▁vent":4599,"▁vig":4600,"▁vape":4601,"▁vote":4602,"▁vacuum":4603,"ask":4604,"▁rans":4605,"▁lives":4606,"ared":4607,"antage":4608,"▁constr":4609,"▁upr":4610,"using":4611,"▁knee":4612,"▁blonde":4613,"▁disneyvacation":4614,"▁disability":4615,"▁princ":4616,"▁hearing":4617,"▁knows":4618,"▁gods":4619,"aging":4620,"aged":4621,"▁roy":4622,"▁drum":4623,"▁clim":4624,"▁click":4625,"▁scooby":4626,"▁people's":4627,"▁hands.":4628,"▁shows":4629,"▁orange":4630,"▁starting":4631,"ires":4632,"▁activ":4633,"▁flint":4634,"spicu":4635,"neck":4636,"angle":4637,"oster":4638,"▁coll":4639,"▁plans":4640,"▁adam":4641,"duction":4642,"▁turned":4643,"▁creative":4644,"▁interracial":4645,"▁phil":4646,"▁phant":4647,"▁realistic":4648,"▁date.":4649,"▁pornstar":4650,"brush":4651,"▁doctor.":4652,"▁policy":4653,"▁decid":4654,"ctions":4655,"▁training":4656,"▁heads":4657,"cient":4658,"▁“the":4659,"▁shitpost":4660,"▁invent":4661,"▁hotel":4662,"▁accom":4663,"▁accur":4664,"▁account":4665,"▁community":4666,"ception":4667,"▁serious":4668,"▁location":4669,"▁ike":4670,"▁professor":4671,"▁article":4672,"▁perfectly":4673,"▁celebrity":4674,"▁twins":4675,"▁musical":4676,"▁muslim":4677,"▁wars":4678,"▁singing":4679,"▁holding":4680,"▁incel":4681,"▁prime":4682,"▁gener":4683,"▁shady":4684,"▁midget":4685,"▁behav":4686,"▁advantage":4687,"▁hybri":4688,"▁bulge":4689,"▁questions":4690,"▁souls":4691,"▁sneaky":4692,"▁faster":4693,"▁cardi":4694,"▁bullies":4695,"▁infant":4696,"hero":4697,"▁burgl":4698,"ruit":4699,"▁dollar":4700,"▁indul":4701,"▁title":4702,"▁burns":4703,"▁elev":4704,"▁cyber":4705,"▁lawn":4706,"▁exciting":4707,"▁michigan":4708,"▁positive":4709,"▁candle":4710,"▁border":4711,"▁telekinetic":4712,"▁spelling":4713,"▁hunting":4714,"▁co-workers":4715,"▁encounter":4716,"▁employee":4717,"▁sentient":4718,"▁fully":4719,"▁minorities":4720,"▁africa":4721,"▁weeb":4722,"▁appropriately":4723,"▁immigration":4724,"▁failed":4725,"▁exorcise":4726,"▁intimidate":4727,"▁keyboard":4728,"▁town":4729,"▁okay":4730,"▁frame":4731,"▁aggressive":4732,"▁corpse":4733,"-spot":4734,"▁request":4735,"▁villain":4736,"▁dancing":4737,"▁murdered":4738,"▁robbery":4739,"▁fleshlight":4740,"▁nickn":4741,"▁re-enact":4742,"▁avengers":4743,"▁spongebob":4744,"▁bucket":4745,"▁coolest":4746,"▁allegiance":4747,"▁inconspicu":4748,"▁frozen":4749,"▁daily":4750,"▁provide":4751,"▁efficiently":4752,"▁schizophrenia":4753,"▁ferret":4754,"▁innoc":4755,"▁document":4756,"▁hallucin":4757,"▁praise":4758,"▁handshake":4759,"▁privilege":4760,"▁album":4761,"▁fursona":4762,"▁discriminate":4763,"▁episode":4764,"▁naruto":4765,"▁olymp":4766,"▁streng":4767,"-girl":4768,"aunt":4769,"aired":4770,"bt":4771,"bre":4772,"cr":4773,"cess":4774,"eve":4775,"gas":4776,"hone":4777,"https://":4778,"ius":4779,"mare":4780,"mail":4781,"ned":4782,"oss":4783,"ped":4784,"point":4785,"rist":4786,"s,":4787,"ser":4788,"sen":4789,"tf":4790,"ts":4791,"ted":4792,"time":4793,"vious":4794,"yan":4795,"▁ell":4796,"▁elf":4797,"▁t-":4798,"▁ten":4799,"▁tent":4800,"▁troll":4801,"▁hi":4802,"▁hiv":4803,"▁huff":4804,"▁toxic":4805,"oust":4806,"in'":4807,"inis":4808,"inter":4809,"▁yo":4810,"▁younger":4811,"▁sle":4812,"▁sort":4813,"▁sau":4814,"ercial":4815,"▁file":4816,"▁fool":4817,"▁fucked":4818,"▁bac":4819,"▁bake":4820,"▁bills":4821,"▁bike":4822,"▁city":4823,"▁came":4824,"▁port":4825,"▁pitch":4826,"onna":4827,"▁went":4828,"▁ward":4829,"▁wrap":4830,"hem":4831,"here":4832,"ati":4833,"ators":4834,"atio":4835,"▁dum":4836,"▁dump":4837,"▁danny":4838,"iter":4839,"▁mal":4840,"▁mile":4841,"▁merm":4842,"▁theory":4843,"aling":4844,"arp":4845,"aries":4846,"▁inj":4847,"ica":4848,"aches":4849,"▁nude":4850,"▁n-word":4851,"stal":4852,"vey":4853,"▁ancient":4854,"right":4855,"▁reuse":4856,"▁reason":4857,"otch":4858,"ilian":4859,"▁uk":4860,"▁uber":4861,"sequ":4862,"ended":4863,"lywood":4864,"▁dopp":4865,"▁dodge":4866,"▁chip":4867,"▁delete":4868,"▁whis":4869,"▁vood":4870,"▁void":4871,"uts":4872,"▁rit":4873,"▁rick":4874,"▁round":4875,"▁suff":4876,"ula":4877,"▁consp":4878,"▁conduct":4879,"▁friendly":4880,"istry":4881,"▁leaves":4882,"▁upon":4883,"▁program":4884,"▁intel":4885,"▁notes":4886,"▁loving":4887,"▁loans":4888,"▁alread":4889,"▁moist":4890,"▁diss":4891,"▁disorder":4892,"izes":4893,"▁unborn":4894,"▁unvacc":4895,"▁peek":4896,"aken":4897,"ieber":4898,"quire":4899,"▁poker":4900,"▁goat":4901,"agers":4902,"▁clown":4903,"▁clones":4904,"▁claim":4905,"▁scp":4906,"▁scal":4907,"▁scold":4908,"▁feature":4909,"▁partners":4910,"▁flowers":4911,"▁overs":4912,"▁means":4913,"▁teaching":4914,"▁surf":4915,"aught":4916,"▁qual":4917,"▁queen":4918,"▁can’t":4919,"▁saus":4920,"▁girlfriend's":4921,"▁emp":4922,"▁reminis":4923,"renade":4924,"▁\"t":4925,"▁contin":4926,"▁command":4927,"▁snail":4928,"▁baby’s":4929,"▁steam":4930,"▁porn.":4931,"▁agent":4932,"▁25":4933,"▁recon":4934,"▁recruit":4935,"▁diabet":4936,"▁polish":4937,"▁winner":4938,"▁slap":4939,"▁cleaning":4940,"▁family.":4941,"▁skill":4942,"▁skip":4943,"▁confess":4944,"ocked":4945,"▁hair.":4946,"▁trainer":4947,"▁carpet":4948,"▁gramm":4949,"▁humanity":4950,"▁himself":4951,"▁nightmare":4952,"▁starter":4953,"▁took":4954,"▁justin":4955,"▁endgame":4956,"▁saying":4957,"▁bigg":4958,"▁grandpa":4959,"▁pretending":4960,"▁protein":4961,"▁body.":4962,"rooms":4963,"▁children.":4964,"▁addiction.":4965,"▁superhero":4966,"▁warri":4967,"▁charge":4968,"▁consume":4969,"▁treatment":4970,"▁medic":4971,"▁meditation":4972,"▁incl":4973,"▁income":4974,"▁material":4975,"▁urinate":4976,"▁mother-in-law":4977,"▁committing":4978,"▁paral":4979,"▁edgy":4980,"▁politics":4981,"▁politician":4982,"▁resume":4983,"▁videos":4984,"▁restrain":4985,"aneously":4986,"▁doesn’t":4987,"▁recognise":4988,"▁engine":4989,"▁possess":4990,"▁threesome.":4991,"▁drunken":4992,"▁disappear":4993,"i-f":4994,"▁infinity":4995,"▁photos":4996,"▁simulate":4997,"▁simple":4998,"▁building":4999}