{"<unk>":0,"!":1,"\"":2,"#":3,"$":4,"%":5,"&":6,"'":7,"(":8,")":9,"*":10,"+":11,",":12,"-":13,".":14,"/":15,"0":16,"1":17,"2":18,"3":19,"4":20,"5":21,"6":22,"7":23,"8":24,"9":25,":":26,";":27,"=":28,"?":29,"@":30,"I":31,"M":32,"P":33,"R":34,"T":35,"[":36,"\\":37,"]":38,"_":39,"a":40,"b":41,"c":42,"d":43,"e":44,"f":45,"g":46,"h":47,"i":48,"j":49,"k":50,"l":51,"m":52,"n":53,"o":54,"p":55,"q":56,"r":57,"s":58,"t":59,"u":60,"v":61,"w":62,"x":63,"y":64,"z":65,"|":66,"~":67,"¢":68,"©":69,"®":70,"°":71,"à":72,"á":73,"ä":74,"é":75,"ë":76,"í":77,"ñ":78,"ö":79,"ü":80,"ţ":81,"ʖ":82,"̀":83,"́":84,"̂":85,"̃":86,"̄":87,"̅":88,"̆":89,"̇":90,"̈":91,"̉":92,"̊":93,"̋":94,"̌":95,"̍":96,"̏":97,"̐":98,"̑":99,"̒":100,"̓":101,"̔":102,"̕":103,"̖":104,"̗":105,"̘":106,"̙":107,"̚":108,"̛":109,"̜":110,"̝":111,"̞":112,"̢":113,"̤":114,"̥":115,"̨":116,"̩":117,"̫":118,"̬":119,"̭":120,"̮":121,"̯":122,"̱":123,"̲":124,"̴":125,"̷":126,"̸":127,"̹":128,"̺":129,"̻":130,"̼":131,"̽":132,"̾":133,"̿":134,"ͅ":135,"͆":136,"͇":137,"͉":138,"͋":139,"͌":140,"͍":141,"͎":142,"͐":143,"͑":144,"͒":145,"͓":146,"͕":147,"͖":148,"͗":149,"͘":150,"͙":151,"͚":152,"͛":153,"͜":154,"͝":155,"͞":156,"͟":157,"͠":158,"͡":159,"͢":160,"е":161,"ḑ":162,"​":163,"‍":164,"‏":165,"‐":166,"—":167,"‘":168,"’":169,"“":170,"”":171,"„":172,"•":173,"√":174,"▁":175,"⚠":176,"「":177,"」":178,"『":179,"』":180,"ツ":181,"丅":182,"乂":183,"乇":184,"匚":185,"卂":186,"卄":187,"尺":188,"工":189,"️":190,"🅱":191,"🌈":192,"🍆":193,"🍹":194,"🎉":195,"🎵":196,"🎶":197,"🏳":198,"👄":199,"👌":200,"👮":201,"💥":202,"💦":203,"😍":204,"😎":205,"😫":206,"🙂":207,"🥜":208,"🥪":209,"🥴":210,"🦖":211,"▁t":212,"▁h":213,"▁to":214,"ow":215,"▁how":216,"▁a":217,"ou":218,"in":219,"▁y":220,"▁you":221,"▁s":222,"▁your":223,"re":224,"er":225,"▁f":226,"▁b":227,"▁c":228,"▁w":229,"on":230,"▁th":231,"▁p":232,"at":233,"en":234,"▁d":235,"it":236,"or":237,"▁the":238,"▁m":239,"▁g":240,"an":241,"ing":242,"le":243,"is":244,"al":245,"om":246,"▁in":247,"et":248,"ar":249,"es":250,"▁o":251,"ic":252,"el":253,"▁l":254,"ac":255,"ke":256,"▁n":257,"▁of":258,"st":259,"▁be":260,"▁re":261,"▁an":262,"ve":263,"ri":264,"▁e":265,"▁wh":266,"ith":267,"ot":268,"▁with":269,"il":270,"▁u":271,"se":272,"id":273,"▁st":274,"▁for":275,"ro":276,"ion":277,"▁get":278,"ed":279,"ly":280,"▁on":281,"ir":282,"oo":283,"end":284,"▁ma":285,"if":286,"out":287,"ay":288,"▁ch":289,"▁k":290,"as":291,"am":292,"ent":293,"im":294,"ur":295,"ome":296,"ate":297,"▁sh":298,"ig":299,"ad":300,"ch":301,"ct":302,"▁do":303,"ell":304,"▁r":305,"riend":306,"ter":307,"ce":308,"▁as":309,"▁de":310,"▁make":311,"op":312,"ol":313,"▁at":314,"▁that":315,"▁fr":316,"ver":317,"▁ha":318,"▁j":319,"and":320,"▁su":321,"one":322,"▁se":323,"▁ne":324,"▁when":325,"▁tell":326,"ut":327,"▁from":328,"▁v":329,"ss":330,"ck":331,"ap":332,"art":333,"▁and":334,"ain":335,"un":336,"▁con":337,"ge":338,"▁sp":339,"▁friend":340,"are":341,"ant":342,"ul":343,"▁if":344,"'s":345,"ind":346,"▁is":347,"ive":348,"▁out":349,"ab":350,"▁le":351,"▁ex":352,"igh":353,"ist":354,"▁ab":355,"est":356,"um":357,"ers":358,"▁pre":359,"▁up":360,"▁int":361,"▁pl":362,"ation":363,"▁pro":364,"▁tr":365,"ill":366,"ack":367,"ide":368,"▁li":369,"us":370,"act":371,"▁have":372,"pl":373,"▁te":374,"ick":375,"ild":376,"ile":377,"▁cat":378,"▁al":379,"th":380,"▁not":381,"em":382,"▁about":383,"elf":384,"▁bo":385,"gh":386,"ep":387,"all":388,"▁some":389,"▁dog":390,"▁com":391,"▁mo":392,"▁bl":393,"ice":394,"ure":395,"ally":396,"▁into":397,"pp":398,"▁bec":399,"ine":400,"▁kn":401,"▁dis":402,"ook":403,"▁it":404,"iz":405,"▁lo":406,"▁dr":407,"▁he":408,"per":409,"ast":410,"’s":411,"▁by":412,"▁un":413,"ake":414,"▁af":415,"▁pr":416,"ect":417,"own":418,"▁child":419,"self":420,"ak":421,"ie":422,"▁use":423,"ach":424,"ood":425,"ight":426,"▁like":427,"▁pe":428,"▁wor":429,"▁become":430,"qu":431,"▁off":432,"▁know":433,"▁yourself":434,"▁gr":435,"ish":436,"▁co":437,"▁go":438,"▁ar":439,"s.":440,"ife":441,"ard":442,"▁someone":443,"ag":444,"▁sex":445,"▁po":446,"dd":447,"▁find":448,"ite":449,"ess":450,"irl":451,"▁we":452,"ace":453,"▁after":454,"ore":455,"▁are":456,"▁ro":457,"ath":458,"ime":459,"der":460,"▁en":461,"▁cl":462,"friend":463,"▁new":464,"ies":465,"ink":466,"▁girl":467,"▁im":468,"▁hand":469,"ort":470,"▁while":471,"oth":472,"ize":473,"age":474,"ople":475,"ub":476,"ress":477,"▁br":478,"▁man":479,"▁you'":480,"alk":481,"▁people":482,"▁sc":483,"ip":484,"oun":485,"▁show":486,"ity":487,"ust":488,"ame":489,"▁jo":490,"ial":491,"▁ri":492,"pare":493,"▁what":494,"sing":495,"▁fe":496,"▁time":497,"ool":498,"▁friends":499,"ry":500,"ving":501,"ting":502,"▁or":503,"▁sm":504,"ere":505,"ass":506,"▁give":507,"ian":508,"▁prepare":509,"▁bre":510,"▁no":511,"urn":512,"ire":513,"ld":514,"sh":515,"▁kid":516,"▁her":517,"▁so":518,"▁fl":519,"ff":520,"orn":521,"ber":522,"orm":523,"▁look":524,"▁play":525,"▁me":526,"▁you're":527,"ous":528,"sp":529,"uck":530,"ug":531,"▁wat":532,"▁part":533,"ud":534,"▁can":535,"av":536,"▁proper":537,"mon":538,"our":539,"ating":540,"ise":541,"ne":542,"▁av":543,"▁over":544,"▁cr":545,"▁per":546,"ble":547,"ts":548,"▁gu":549,"▁life":550,"▁start":551,"ident":552,"oid":553,"cc":554,"oy":555,"▁ke":556,"▁you’":557,"▁stop":558,"▁teach":559,"au":560,"ance":561,"▁che":562,"▁sch":563,"▁being":564,"ough":565,"▁deal":566,"ong":567,"ase":568,"ict":569,"ely":570,"▁work":571,"ang":572,"▁who":573,"ment":574,"ost":575,"▁his":576,"'t":577,"iv":578,"▁wr":579,"▁boy":580,"▁avoid":581,"aw":582,"og":583,"▁qu":584,"ign":585,"▁\"":586,"▁rem":587,"▁back":588,"▁col":589,"ash":590,"▁real":591,"▁plan":592,"▁all":593,"▁take":594,"▁day":595,"▁em":596,"other":597,"pt":598,"▁keep":599,"ner":600,"ave":601,"▁properly":602,"▁talk":603,"▁let":604,"▁using":605,"form":606,"ose":607,"▁hide":608,"▁cont":609,"ail":610,"ree":611,"▁one":612,"able":613,"▁ad":614,"▁act":615,"cre":616,"erm":617,"▁ass":618,"▁expl":619,"ddit":620,"ual":621,"▁turn":622,"..":623,"▁ask":624,"dy":625,"▁sw":626,"▁ph":627,"▁own":628,"▁att":629,"▁tw":630,"ctor":631,"▁you’re":632,"▁inter":633,"▁comm":634,"▁imp":635,"ond":636,"▁app":637,"ouse":638,"▁face":639,"▁girlfriend":640,"▁sn":641,"▁thr":642,"old":643,"ans":644,"▁1":645,"erson":646,"▁doctor":647,"get":648,"▁bab":649,"▁cre":650,"xt":651,"▁sur":652,"▁r/":653,"ear":654,"way":655,"▁good":656,"ily":657,"▁school":658,"aren":659,"aa":660,"▁ag":661,"ark":662,"▁eat":663,"very":664,"uce":665,"▁home":666,"▁2":667,"▁bu":668,"ich":669,"▁without":670,"▁baby":671,"ird":672,"oot":673,"▁(":674,"ren":675,"▁fam":676,"▁ey":677,"ound":678,"▁reddit":679,"ght":680,"ia":681,"ue":682,"amp":683,"▁pet":684,"▁ev":685,"br":686,"ik":687,"▁rec":688,"arm":689,"▁react":690,"▁dec":691,"les":692,"int":693,"▁down":694,"irst":695,"ult":696,"▁kill":697,"▁porn":698,"▁don":699,"▁break":700,"os":701,"eth":702,"▁read":703,"oney":704,"▁but":705,"▁cle":706,"▁their":707,"▁hum":708,"ence":709,"▁explain":710,"▁sl":711,"▁date":712,"tle":713,"▁cop":714,"▁person":715,"▁fun":716,"▁pol":717,"ank":718,"▁she":719,"ful":720,"▁has":721,"ens":722,"▁ste":723,"uring":724,"▁am":725,"iss":726,"▁hel":727,"▁first":728,"▁pract":729,"▁money":730,"ney":731,"▁family":732,"▁next":733,"▁win":734,"▁think":735,"up":736,"▁want":737,"▁mast":738,"▁comp":739,"▁boyfriend":740,"how":741,"▁fet":742,"▁gh":743,"iki":744,"arn":745,"▁spe":746,"play":747,"af":748,"bo":749,"ll":750,"er.":751,"ord":752,"▁neigh":753,"▁neighb":754,"▁resp":755,"▁sub":756,"▁watch":757,"▁practice":758,"de":759,"▁during":760,"▁drug":761,"▁ghost":762,"be":763,"▁car":764,"▁black":765,"▁help":766,"▁pen":767,"oc":768,"ock":769,"▁“":770,"▁gre":771,"▁love":772,"▁wife":773,"▁this":774,"▁rel":775,"app":776,"▁conf":777,"▁head":778,"▁clean":779,"ush":780,"ph":781,"▁him":782,"ikihow":783,"▁best":784,"▁wom":785,"itch":786,"▁getting":787,"▁ident":788,"▁di":789,"lect":790,"▁post":791,"▁kids":792,"▁pub":793,"urb":794,"▁feel":795,"ked":796,"▁see":797,"▁ac":798,"▁they":799,"ify":800,"▁ru":801,"▁arm":802,"ger":803,"▁det":804,"▁mem":805,"▁shit":806,"▁fetish":807,"▁too":808,"▁paren":809,"ert":810,"▁fin":811,"▁way":812,"▁conv":813,"▁add":814,"▁sk":815,"▁put":816,"ape":817,"▁more":818,"▁human":819,"▁house":820,"ition":821,"▁just":822,"uch":823,"▁high":824,"▁gay":825,"▁every":826,"ump":827,"▁check":828,"lic":829,"▁night":830,"▁hair":831,"ork":832,"▁son":833,"▁disc":834,"vie":835,"▁through":836,"▁fur":837,"ors":838,"▁train":839,"▁right":840,"▁guy":841,"ually":842,"▁inv":843,"oose":844,"vers":845,"▁again":846,"▁away":847,"▁party":848,"▁write":849,"ince":850,"joy":851,"ism":852,"esc":853,"▁under":854,"leep":855,"▁white":856,"ade":857,"az":858,"rect":859,"ont":860,"ary":861,"▁rid":862,"fore":863,"vot":864,"▁acc":865,"▁care":866,"acation":867,"▁drink":868,"augh":869,"fect":870,"ious":871,"▁cor":872,"ings":873,"▁oth":874,"▁end":875,"▁them":876,"▁game":877,"▁enjoy":878,"▁cope":879,"▁say":880,"▁bad":881,"▁having":882,"▁sure":883,"▁will":884,"▁before":885,"▁rac":886,"ull":887,"▁job":888,"man":889,"ob":890,"▁str":891,"▁exp":892,"▁cow":893,"▁pick":894,"▁mar":895,"▁gi":896,"anc":897,"ute":898,"▁grand":899,"▁perform":900,"ical":901,"▁star":902,"▁steal":903,"▁masturb":904,"ty":905,"▁fuck":906,"▁wikihow":907,"rop":908,"▁public":909,"▁i":910,"▁water":911,"▁convince":912,"cle":913,"day":914,"’t":915,"▁fing":916,"▁any":917,"▁call":918,"▁mom":919,"▁ins":920,"ient":921,"ract":922,"use":923,"ions":924,"▁tele":925,"▁big":926,"es.":927,"▁lit":928,"str":929,"▁tri":930,"▁succ":931,"▁cos":932,"▁year":933,"ated":934,"▁where":935,"n't":936,"▁gl":937,"ing.":938,"▁body":939,"▁mon":940,"ject":941,"ole":942,"▁hot":943,"▁food":944,"▁leg":945,"▁grow":946,"▁sign":947,"ream":948,"▁identify":949,"▁ser":950,"ange":951,"▁dead":952,"▁decide":953,"▁penis":954,"▁demon":955,"▁pret":956,"▁eye":957,"com":958,"ds":959,"▁only":960,"ee":961,"unch":962,"▁hit":963,"▁fart":964,"▁mur":965,"ror":966,"▁bet":967,"▁come":968,"▁pow":969,"▁really":970,"▁loc":971,"gin":972,"▁hor":973,"▁spot":974,"ib":975,"ould":976,"▁sleep":977,"less":978,"▁trans":979,"ship":980,"▁sed":981,"▁bird":982,"▁op":983,"▁rep":984,"▁ear":985,"cept":986,"▁blow":987,"▁room":988,"▁ball":989,"▁cook":990,"▁thre":991,"▁pay":992,"omin":993,"ster":994,"▁pres":995,"▁org":996,"cret":997,"▁commun":998,"▁parents":999,"ory":1000,"let":1001,"▁list":1002,"▁been":1003,"oop":1004,"ount":1005,"▁20":1006,"▁success":1007,"ax":1008,"air":1009,"bit":1010,"▁fant":1011,"ister":1012,"▁old":1013,"asure":1014,"▁sum":1015,"▁world":1016,"▁sexual":1017,"▁furry":1018,"▁fantas":1019,"▁ple":1020,"▁long":1021,"▁step":1022,"room":1023,"▁prot":1024,"▁children":1025,"ale":1026,"een":1027,"ines":1028,"▁choose":1029,"▁hands":1030,"▁phone":1031,"▁perfect":1032,"ermine":1033,"▁ready":1034,"▁z":1035,"▁pain":1036,"ann":1037,"▁ext":1038,"▁pretend":1039,"duce":1040,"▁self":1041,"▁ann":1042,"▁prof":1043,"ember":1044,"▁determine":1045,"ible":1046,"line":1047,"vel":1048,"▁ve":1049,"▁dri":1050,"▁super":1051,"▁twin":1052,"y.":1053,"▁ce":1054,"▁inst":1055,"▁shoot":1056,"▁run":1057,"▁happ":1058,"▁movie":1059,"▁realize":1060,"vent":1061,"▁cal":1062,"▁live":1063,"▁lose":1064,"iction":1065,"aaaa":1066,"bs":1067,"uct":1068,"uss":1069,"▁3":1070,"▁5":1071,"eric":1072,"▁fish":1073,"▁cosplay":1074,"cial":1075,"▁tre":1076,"▁fight":1077,"▁din":1078,"ics":1079,"sed":1080,"▁dep":1081,"▁murder":1082,"co":1083,"▁test":1084,"▁death":1085,"▁suic":1086,"oup":1087,"ically":1088,"▁cons":1089,"▁remember":1090,"▁speak":1091,"▁seduce":1092,"uc":1093,"▁bath":1094,"▁was":1095,"▁vis":1096,"▁blind":1097,"▁wear":1098,"ying":1099,"▁than":1100,"ison":1101,"▁last":1102,"▁respond":1103,"iate":1104,"▁dad":1105,"▁art":1106,"▁imag":1107,"▁intern":1108,"▁even":1109,"▁other":1110,"ward":1111,"▁save":1112,"▁ed":1113,"ender":1114,"▁upvot":1115,"▁surv":1116,"▁neighbor":1117,"▁el":1118,"▁ham":1119,"▁domin":1120,"▁mus":1121,"als":1122,"rim":1123,"outh":1124,"▁rab":1125,"▁need":1126,"▁join":1127,"▁successful":1128,"band":1129,"ipp":1130,"▁sing":1131,"▁fav":1132,"▁mind":1133,"▁create":1134,"▁don't":1135,"▁ruin":1136,"fl":1137,"gn":1138,"king":1139,"ove":1140,"▁sell":1141,"ret":1142,"▁free":1143,"▁partner":1144,"arma":1145,"▁drugs":1146,"▁summon":1147,"▁cele":1148,"▁suicide":1149,"▁ign":1150,"▁secret":1151,"▁relation":1152,"vacation":1153,"▁ent":1154,"▁har":1155,"▁poop":1156,"▁dick":1157,"led":1158,"irt":1159,"▁karma":1160,"usband":1161,"▁rob":1162,"neyvacation":1163,"▁accept":1164,"▁giant":1165,"▁dinner":1166,"▁celebr":1167,"gg":1168,"▁foot":1169,"▁draw":1170,"▁little":1171,"ft":1172,"▁aut":1173,"oul":1174,"▁bro":1175,"▁chick":1176,"▁shad":1177,"▁learn":1178,"▁americ":1179,"▁sy":1180,"▁med":1181,"iff":1182,"▁chr":1183,"▁god":1184,"aughter":1185,"▁survive":1186,"dis":1187,"fort":1188,"he":1189,"pr":1190,"▁hold":1191,"▁husband":1192,"▁min":1193,"▁je":1194,"ression":1195,"▁feed":1196,"a.":1197,"by":1198,"e.":1199,"ien":1200,"ys":1201,"▁ter":1202,"inate":1203,"▁pot":1204,"▁pap":1205,"▁mat":1206,"▁correct":1207,"▁air":1208,"▁fore":1209,"▁pass":1210,"▁much":1211,"▁stay":1212,"▁does":1213,"▁boss":1214,"▁coc":1215,"▁brother":1216,"▁butt":1217,"▁woman":1218,"▁against":1219,"▁relationship":1220,"00":1221,"yp":1222,"▁esc":1223,"▁inc":1224,"▁eating":1225,"▁neck":1226,"ants":1227,"▁catch":1228,"▁commit":1229,"▁eyes":1230,"▁polit":1231,"▁rabbit":1232,"-w":1233,"iet":1234,"▁set":1235,"▁fire":1236,"▁pat":1237,"▁des":1238,"▁dress":1239,"arr":1240,"▁vir":1241,"▁intro":1242,"▁colle":1243,"▁contro":1244,"ball":1245,"kes":1246,"▁'":1247,"▁cool":1248,"icate":1249,"▁reg":1250,"▁def":1251,"▁prevent":1252,"▁going":1253,"▁attack":1254,"▁horse":1255,"▁annoy":1256,"io":1257,"▁sat":1258,"▁saf":1259,"ons":1260,"ates":1261,"▁ob":1262,"▁vict":1263,"aine":1264,"unk":1265,"▁trick":1266,"▁finger":1267,"▁internet":1268,"aid":1269,"ek":1270,"▁toile":1271,"ator":1272,"▁dance":1273,"▁mis":1274,"▁mark":1275,"ribe":1276,"▁eff":1277,"▁vamp":1278,"umb":1279,"▁class":1280,"▁meet":1281,"▁cut":1282,"▁gen":1283,"▁char":1284,"▁smo":1285,"ause":1286,"▁ignore":1287,"▁toilet":1288,"over":1289,"▁bir":1290,"▁mother":1291,"▁mouth":1292,"▁res":1293,"▁ur":1294,"▁force":1295,"apt":1296,"▁spice":1297,"▁it's":1298,"aking":1299,"disneyvacation":1300,"path":1301,"uff":1302,"▁those":1303,"▁dist":1304,"inder":1305,"▁two":1306,"▁women":1307,"▁addiction":1308,"▁grandm":1309,"▁celebrate":1310,"cer":1311,"pose":1312,"ves":1313,"▁ap":1314,"▁you.":1315,"▁sister":1316,"▁dream":1317,"▁daughter":1318,"▁my":1319,"▁which":1320,"...":1321,"▁victim":1322,"ix":1323,"▁book":1324,"▁war":1325,"▁pig":1326,"▁buy":1327,"▁vampire":1328,"ait":1329,"yle":1330,"enn":1331,"▁beh":1332,"▁why":1333,"▁stand":1334,"▁stud":1335,"▁online":1336,"▁supp":1337,"▁vide":1338,"▁open":1339,"▁cocaine":1340,"gan":1341,"ps":1342,"ven":1343,"▁fact":1344,"▁bus":1345,"▁mid":1346,"▁bed":1347,"▁ref":1348,"oph":1349,"▁suck":1350,"▁crush":1351,"blem":1352,"▁finally":1353,"▁dominance":1354,"job":1355,"▁sal":1356,"▁fre":1357,"▁red":1358,"olog":1359,"▁sec":1360,"▁problem":1361,"▁nose":1362,"▁wrong":1363,"▁everyone":1364,"▁college":1365,"▁birth":1366,"▁sne":1367,"▁fail":1368,"▁bill":1369,"▁walk":1370,"▁pri":1371,"ention":1372,"▁handle":1373,"▁fake":1374,"▁wash":1375,"ese":1376,"▁rap":1377,"▁front":1378,"▁never":1379,"allow":1380,"▁disney":1381,"▁favor":1382,"▁christ":1383,"▁introduce":1384,"its":1385,"esome":1386,"▁ant":1387,"▁move":1388,"▁rock":1389,"▁enem":1390,"eren":1391,"▁flo":1392,"▁adv":1393,"▁protect":1394,"-t":1395,"▁had":1396,"▁boo":1397,"stand":1398,"ider":1399,"ations":1400,"▁quest":1401,"▁remove":1402,"▁racist":1403,"▁control":1404,"▁favorite":1405,"gle":1406,"ling":1407,"tt":1408,"▁sol":1409,"▁fem":1410,"▁convers":1411,"▁trump":1412,"ession":1413,"ively":1414,"▁swe":1415,"▁local":1416,"ler":1417,"ra":1418,"tub":1419,"▁4":1420,"▁tar":1421,"▁tinder":1422,"▁bar":1423,"▁del":1424,"▁got":1425,"omb":1426,"vert":1427,"▁pregn":1428,"aste":1429,"▁breast":1430,"▁police":1431,"▁power":1432,"ng":1433,"▁bat":1434,"▁bul":1435,"▁us":1436,"▁change":1437,"▁it’s":1438,"▁r/disneyvacation":1439,"▁trip":1440,"▁shadow":1441,"▁escape":1442,"uter":1443,"▁touch":1444,"▁squ":1445,"▁soul":1446,"▁pop":1447,"ane":1448,"ross":1449,"▁disapp":1450,"▁its":1451,"▁smell":1452,"▁paper":1453,"hol":1454,"▁hard":1455,"▁base":1456,"ones":1457,"ities":1458,"▁men":1459,"▁mir":1460,"alian":1461,"▁beat":1462,"unt":1463,"▁impress":1464,"▁threesome":1465,"▁president":1466,"▁listen":1467,"▁x":1468,"rest":1469,"▁though":1470,"▁things":1471,"▁dest":1472,"▁still":1473,"▁should":1474,"▁blood":1475,"ather":1476,"▁telepath":1477,"▁chicken":1478,"ience":1479,"mber":1480,"oint":1481,"▁aw":1482,"▁fig":1483,"▁bitch":1484,"▁gam":1485,"ald":1486,"▁nut":1487,"▁anim":1488,"▁another":1489,"▁store":1490,"ills":1491,"▁most":1492,"▁heal":1493,"▁arg":1494,"▁you've":1495,"ogn":1496,"▁masturbate":1497,"▁video":1498,"-f":1499,"sy":1500,"read":1501,"▁fle":1502,"▁punch":1503,"iting":1504,"▁gang":1505,"▁ep":1506,"▁mass":1507,"ift":1508,"▁sho":1509,"▁collect":1510,"▁build":1511,"▁meme":1512,"▁strang":1513,"▁communicate":1514,"▁treat":1515,"▁virgin":1516,"aise":1517,"gy":1518,"oin":1519,"iness":1520,"▁fil":1521,"▁count":1522,"▁mill":1523,"▁light":1524,"▁leave":1525,"ument":1526,"▁box":1527,"▁heart":1528,"▁social":1529,"▁quick":1530,"▁career":1531,"20":1532,"od":1533,"▁fall":1534,"▁cir":1535,"▁rest":1536,"▁anal":1537,"ular":1538,"▁eng":1539,"ustr":1540,"▁surpr":1541,"▁hamster":1542,"▁conversation":1543,"her":1544,"oon":1545,"ram":1546,"▁bull":1547,"▁won":1548,"▁pict":1549,"▁inf":1550,"▁ret":1551,"rog":1552,"▁cowork":1553,"▁201":1554,"▁fantasize":1555,"▁vegan":1556,"-s":1557,"ness":1558,"ric":1559,"eral":1560,"▁cure":1561,"▁pur":1562,"ited":1563,"▁anime":1564,"▁eas":1565,"ion.":1566,"▁sun":1567,"▁cond":1568,"▁left":1569,"▁prost":1570,"▁cock":1571,"▁poss":1572,"▁week":1573,"▁order":1574,"▁actually":1575,"▁assert":1576,"▁phot":1577,"▁recogn":1578,"▁computer":1579,"▁greet":1580,"▁music":1581,"▁correctly":1582,"▁effect":1583,"▁figure":1584,"▁picture":1585,"book":1586,"▁youtub":1587,"red":1588,"res":1589,"▁fat":1590,"▁bud":1591,"▁past":1592,"▁val":1593,"▁alien":1594,"▁cann":1595,"▁express":1596,"▁better":1597,"▁happy":1598,"▁mirror":1599,"!!":1600,"n’t":1601,"row":1602,"▁hom":1603,"▁size":1604,"▁cult":1605,"▁there":1606,"▁ind":1607,"▁cho":1608,"oll":1609,"▁teeth":1610,"izz":1611,"ered":1612,"▁teacher":1613,"▁great":1614,"▁accident":1615,"▁pleasure":1616,"▁upvotes":1617,"ah":1618,"ior":1619,"my":1620,"ym":1621,"▁er":1622,"▁same":1623,"▁bel":1624,"▁nipp":1625,"the":1626,"▁prom":1627,"▁shower":1628,"▁looking":1629,"▁attract":1630,"▁respect":1631,"▁depression":1632,"son":1633,"▁hat":1634,"ina":1635,"▁sit":1636,"rem":1637,"▁fut":1638,"▁card":1639,"▁desc":1640,"▁laugh":1641,"▁ang":1642,"▁stalk":1643,"▁mag":1644,"ulate":1645,"▁cats":1646,"▁were":1647,"▁ens":1648,"▁throw":1649,"▁invis":1650,"ropri":1651,"▁behind":1652,"▁student":1653,"▁destro":1654,"▁surprise":1655,"cl":1656,"men":1657,"ny":1658,"ning":1659,"sb":1660,"▁tree":1661,"▁fan":1662,"▁fac":1663,"▁wall":1664,"▁psy":1665,"▁mil":1666,"ices":1667,"▁low":1668,"acc":1669,"ason":1670,"imate":1671,"▁vacation":1672,"aph":1673,"▁exist":1674,"▁because":1675,"▁weird":1676,"▁brain":1677,"▁small":1678,"▁you’ve":1679,"▁snake":1680,"body":1681,"▁skin":1682,"▁question":1683,"▁psych":1684,"-l":1685,"hn":1686,"mas":1687,"ween":1688,"▁bur":1689,"ature":1690,"▁did":1691,"▁diff":1692,"leg":1693,"▁reject":1694,"▁form":1695,"▁forget":1696,"▁karen":1697,"▁shop":1698,"▁vi":1699,"▁teen":1700,"▁comfort":1701,"ized":1702,"▁drunk":1703,"▁prison":1704,"board":1705,"▁between":1706,"▁drive":1707,"▁second":1708,"▁sneak":1709,"aff":1710,"ike":1711,"▁9":1712,"▁sim":1713,"▁sound":1714,"▁cas":1715,"▁die":1716,"orce":1717,"arch":1718,"▁doll":1719,"▁lesb":1720,"▁exam":1721,"istic":1722,"▁dispose":1723,"▁around":1724,"▁role":1725,"▁creep":1726,"▁don’t":1727,"▁neighbors":1728,"▁confr":1729,"▁understand":1730,"▁years":1731,"▁balls":1732,"▁extra":1733,"▁female":1734,"▁target":1735,"▁invisible":1736,"▁destroy":1737,"▁lesbian":1738,"aving":1739,"cr":1740,"gu":1741,"ied":1742,"mate":1743,"▁taking":1744,"oud":1745,"▁bow":1746,"▁pu":1747,"itate":1748,"▁lat":1749,"key":1750,"▁name":1751,"▁dev":1752,"▁exper":1753,"▁plot":1754,"▁uni":1755,"▁group":1756,"▁weed":1757,"▁brow":1758,"▁discuss":1759,"▁month":1760,"▁grandma":1761,"▁birthday":1762,"▁future":1763,"▁confront":1764,"-d":1765,"-p":1766,"lish":1767,"▁piss":1768,"ative":1769,"▁meth":1770,"▁gold":1771,"otion":1772,"▁male":1773,"▁shame":1774,"▁spend":1775,"▁plant":1776,"▁john":1777,"▁breath":1778,"▁adm":1779,"▁threat":1780,"▁annoying":1781,"▁christmas":1782,"▁budget":1783,"-h":1784,"▁term":1785,"▁austr":1786,"▁fit":1787,"▁bas":1788,"▁park":1789,"▁pants":1790,"ene":1791,"▁mor":1792,"▁met":1793,"alf":1794,"▁inner":1795,"▁inform":1796,"▁fort":1797,"▁making":1798,"place":1799,"▁meat":1800,"▁color":1801,"▁inside":1802,"cohol":1803,"▁health":1804,"▁youtube":1805,"▁ensure":1806,"ces":1807,"kin":1808,"▁tit":1809,"▁tur":1810,"▁send":1811,"▁puss":1812,"▁ment":1813,"ality":1814,"otic":1815,"▁style":1816,"ama":1817,"▁prove":1818,"▁alcohol":1819,"▁talking":1820,"▁thinking":1821,"▁blowjob":1822,"▁bathroom":1823,"▁business":1824,"i-":1825,"ten":1826,"▁ice":1827,"▁ho":1828,"▁hy":1829,"ouble":1830,"▁cross":1831,"▁wif":1832,"lest":1833,"▁begin":1834,"rip":1835,"ote":1836,"▁race":1837,"▁raise":1838,"▁friend's":1839,"▁less":1840,"▁trying":1841,"▁blue":1842,"▁office":1843,"▁someone's":1844,"▁club":1845,"erest":1846,"ude":1847,"▁emo":1848,"▁assass":1849,"▁complet":1850,"▁market":1851,"▁describe":1852,"-b":1853,"▁tor":1854,"▁som":1855,"▁cry":1856,"▁par":1857,"▁ped":1858,"ital":1859,"▁incre":1860,"icked":1861,"asm":1862,"imens":1863,"▁shot":1864,"ellow":1865,"verse":1866,"▁jack":1867,"arth":1868,"▁spir":1869,"ieve":1870,"▁pee":1871,"▁clone":1872,"fully":1873,"▁watching":1874,"▁giving":1875,"▁glass":1876,"ibal":1877,"aaaaaaaa":1878,"▁imagine":1879,"▁distract":1880,"▁milk":1881,"dr":1882,"ein":1883,"of":1884,"tly":1885,"▁table":1886,"▁hate":1887,"▁cy":1888,"▁cam":1889,"▁cast":1890,"▁third":1891,"▁div":1892,"eld":1893,"▁law":1894,"▁doing":1895,"▁exc":1896,"▁abort":1897,"▁place":1898,"▁try":1899,"▁imm":1900,"▁measure":1901,"▁cancer":1902,"▁letter":1903,"▁downvot":1904,"view":1905,"▁fucking":1906,"▁fingers":1907,"▁powers":1908,"▁american":1909,"head":1910,"▁disappoint":1911,"▁differen":1912,"▁wifi":1913,"duct":1914,"fy":1915,"ier":1916,"lord":1917,"uit":1918,"ination":1919,"▁wed":1920,"▁wind":1921,"ately":1922,"▁mich":1923,"▁gain":1924,"▁init":1925,"▁lad":1926,"▁bear":1927,"rove":1928,"▁once":1929,"▁may":1930,"ently":1931,"▁drown":1932,"▁prank":1933,"▁girls":1934,"▁scare":1935,"aught":1936,"ives":1937,"▁attention":1938,"▁surger":1939,"▁funeral":1940,"▁master":1941,"▁successfully":1942,"▁enemies":1943,"▁argument":1944,"work":1945,"xual":1946,"▁very":1947,"▁hol":1948,"▁host":1949,"▁top":1950,"▁burn":1951,"▁pun":1952,"▁duck":1953,"▁gun":1954,"▁gender":1955,"ana":1956,"icious":1957,"▁egg":1958,"ential":1959,"▁rom":1960,"▁spider":1961,"thing":1962,"akes":1963,"▁arrest":1964,"▁area":1965,"▁facebook":1966,"▁marri":1967,"iety":1968,"▁patient":1969,"▁regret":1970,"▁problems":1971,"come":1972,"ze":1973,"▁est":1974,"▁ide":1975,"▁aud":1976,"▁side":1977,"▁fly":1978,"▁farm":1979,"▁cum":1980,"▁cour":1981,"ense":1982,"▁must":1983,"arant":1984,"vember":1985,"▁earth":1986,"ed.":1987,"▁made":1988,"olf":1989,"▁jer":1990,"▁interest":1991,"▁bring":1992,"▁november":1993,"▁evil":1994,"ething":1995,"aft":1996,"▁confuse":1997,"▁parent":1998,"▁others":1999,"▁terror":2000,"▁doesn't":2001,"▁recognize":2002,"ressed":2003,"▁cannibal":2004,"▁emoj":2005,"dle":2006,"gr":2007,"▁id":2008,"▁hid":2009,"▁hallow":2010,"ouch":2011,"▁sand":2012,"▁cand":2013,"▁crim":2014,"▁three":2015,"▁thank":2016,"acter":2017,"▁norm":2018,"▁elect":2019,"idence":2020,"▁asian":2021,"▁deb":2022,"▁ju":2023,"ume":2024,"▁team":2025,"▁coff":2026,"▁pos":2027,"▁feet":2028,"▁contest":2029,"▁paint":2030,"▁wearing":2031,"▁america":2032,"▁terri":2033,"ennial":2034,"▁film":2035,"▁millennial":2036,"▁fortn":2037,"▁pussy":2038,"▁something":2039,"imension":2040,"▁halloween":2041,"-m":2042,".com":2043,"ding":2044,"r.":2045,"▁fist":2046,"▁fast":2047,"▁pack":2048,"▁mic":2049,"▁las":2050,"▁reven":2051,"▁ever":2052,"▁share":2053,"▁jes":2054,"▁level":2055,"▁discre":2056,"▁cloth":2057,"▁playing":2058,"ways":2059,"▁russ":2060,"▁orgasm":2061,"▁secretly":2062,"▁safely":2063,"▁support":2064,"▁effectively":2065,"▁threaten":2066,"▁discreet":2067,"raph":2068,"▁ir":2069,"▁half":2070,"▁song":2071,"▁bot":2072,"▁wild":2073,"▁wait":2074,"▁pir":2075,"▁erect":2076,"▁stick":2077,"ural":2078,"▁short":2079,"vern":2080,"▁vag":2081,"ploy":2082,"▁tech":2083,"▁alone":2084,"▁italian":2085,"▁uncle":2086,"agon":2087,"▁sexually":2088,"▁enough":2089,"iality":2090,"▁smug":2091,"▁kidn":2092,"▁flirt":2093,"▁green":2094,"▁satan":2095,"▁character":2096,"▁pregnant":2097,"▁battle":2098,"▁magic":2099,"▁initiate":2100,"▁fortnite":2101,"▁revenge":2102,"-a":2103,"cise":2104,"hood":2105,"iving":2106,"lar":2107,"land":2108,"xic":2109,"▁/":2110,"▁ill":2111,"rec":2112,"▁fri":2113,"▁found":2114,"▁band":2115,"▁pill":2116,"▁pie":2117,"ato":2118,"▁dark":2119,"oming":2120,"▁lim":2121,"▁rece":2122,"▁reach":2123,"▁deg":2124,"▁jud":2125,"▁abs":2126,"▁dogs":2127,"▁mod":2128,"▁lover":2129,"▁cover":2130,"▁poison":2131,"▁overlord":2132,"▁appro":2133,"▁wants":2134,"▁signs":2135,"▁visit":2136,"▁satis":2137,"▁smoke":2138,"▁fresh":2139,"ollow":2140,"▁surgery":2141,"▁jesus":2142,"▁discreetly":2143,"got":2144,"tr":2145,"ww":2146,"ycle":2147,"▁tim":2148,"inary":2149,"▁sil":2150,"▁bank":2151,"▁cur":2152,"▁cust":2153,"▁cup":2154,"att":2155,"▁mult":2156,"acy":2157,"▁naz":2158,"roke":2159,"▁door":2160,"▁lead":2161,"▁block":2162,"▁aff":2163,"▁pray":2164,"▁cost":2165,"▁govern":2166,"▁scre":2167,"ances":2168,"▁please":2169,"anned":2170,"▁floor":2171,"ged":2172,"▁6":2173,"ins":2174,"▁follow":2175,"▁bor":2176,"enact":2177,"▁math":2178,"ets":2179,"▁opp":2180,"▁now":2181,"▁kicked":2182,"olut":2183,"▁jap":2184,"▁susp":2185,"▁vie":2186,"ung":2187,"▁always":2188,"▁becoming":2189,"▁poor":2190,"ies.":2191,"▁many":2192,"ired":2193,"▁soc":2194,"▁remind":2195,"▁interview":2196,"▁slow":2197,"▁skills":2198,"▁masturbating":2199,"▁robot":2200,"▁politely":2201,"▁experience":2202,"▁increase":2203,"▁coffee":2204,".com/":2205,"▁japan":2206,"▁view":2207,"cut":2208,"dge":2209,"hold":2210,"ipl":2211,"kk":2212,"wikihow":2213,"▁7":2214,"inal":2215,"▁both":2216,"▁capt":2217,"▁waste":2218,"▁pull":2219,"▁pizz":2220,"ito":2221,"eter":2222,"stein":2223,"▁earn":2224,"▁ston":2225,"ific":2226,"▁deep":2227,"olate":2228,"▁jump":2229,"▁sup":2230,"▁season":2231,"▁spell":2232,"▁lemon":2233,"▁living":2234,"▁disgu":2235,"▁unw":2236,"▁uncom":2237,"▁child's":2238,"▁smile":2239,"ograph":2240,"▁plane":2241,"▁employ":2242,"▁10":2243,"▁evidence":2244,"▁killer":2245,"▁subtly":2246,"▁arms":2247,"azy":2248,"▁drinking":2249,"▁staring":2250,"velop":2251,"▁51":2252,"▁meeting":2253,"▁pupp":2254,"▁divorce":2255,"▁arrested":2256,"▁government":2257,"▁uncomfort":2258,"gress":2259,"ky":2260,"wh":2261,"▁today":2262,"▁age":2263,"iny":2264,"▁four":2265,"▁bri":2266,"▁caught":2267,"▁ther":2268,"▁thing":2269,"icle":2270,"▁nice":2271,"▁stat":2272,"▁stroke":2273,"▁gets":2274,"▁kick":2275,"▁rich":2276,"▁spread":2277,"ests":2278,"ers.":2279,"▁project":2280,"▁lie":2281,"▁compl":2282,"▁hear":2283,"▁co-w":2284,"▁weight":2285,"▁fear":2286,"▁heroin":2287,"▁crack":2288,"ivate":2289,"▁contact":2290,"erman":2291,"▁appropri":2292,"▁early":2293,"▁organ":2294,"▁profession":2295,"▁upvote":2296,"▁single":2297,"▁safe":2298,"▁middle":2299,"▁priv":2300,"ttps":2301,"▁sweet":2302,"▁circ":2303,"▁easy":2304,"▁condom":2305,"▁photo":2306,"▁valent":2307,"▁abortion":2308,"▁co-work":2309,"-man":2310,".wikihow":2311,"//":2312,"://":2313,"ault":2314,"fish":2315,"kward":2316,"to":2317,"▁sa":2318,"▁cent":2319,"▁camp":2320,"▁well":2321,"▁pool":2322,"▁double":2323,"▁dimension":2324,"▁gym":2325,"▁lab":2326,"▁state":2327,"▁stuff":2328,"▁develop":2329,"▁semen":2330,"▁vo":2331,"▁space":2332,"ists":2333,"▁alter":2334,"aster":2335,"que":2336,"▁offer":2337,"▁grad":2338,"▁point":2339,"ucks":2340,"▁cold":2341,"▁embr":2342,"▁adult":2343,"▁apprec":2344,"▁porno":2345,"▁neighbour":2346,"▁diet":2347,"ertain":2348,"▁discipl":2349,"▁demons":2350,"▁roommate":2351,"annel":2352,"wards":2353,"▁awkward":2354,"▁animal":2355,"▁pedoph":2356,"▁punish":2357,"▁therap":2358,"ttps://":2359,"▁embrace":2360,"▁discipline":2361,"ex":2362,"eat":2363,"r/":2364,"▁vers":2365,"▁hell":2366,"▁hole":2367,"▁sent":2368,"reddit":2369,"▁ban":2370,"▁banned":2371,"▁wet":2372,"▁would":2373,"▁dating":2374,"▁morn":2375,"omer":2376,"etic":2377,"▁non":2378,"stem":2379,"ots":2380,"▁stre":2381,"▁stri":2382,"▁channel":2383,"▁kiss":2384,"▁spr":2385,"▁lev":2386,"▁lost":2387,"▁uns":2388,"▁used":2389,"▁sexy":2390,"▁scene":2391,"ipe":2392,"avel":2393,"▁switch":2394,"▁improve":2395,"▁identity":2396,"▁final":2397,"ancy":2398,"▁masturbation":2399,"▁locate":2400,"▁anti-":2401,"▁bully":2402,"▁shoes":2403,"▁coworkers":2404,"▁nipples":2405,"▁browse":2406,"▁different":2407,"▁terrible":2408,"▁/r/":2409,"▁satisfy":2410,"▁uncomfortable":2411,"bl":2412,"bing":2413,"cour":2414,"go":2415,"ield":2416,"ken":2417,"lo":2418,"ping":2419,"port":2420,"so":2421,"▁8":2422,"▁hour":2423,"▁young":2424,"▁sick":2425,"▁fix":2426,"▁father":2427,"▁warm":2428,"▁page":2429,"atch":2430,"▁den":2431,"itute":2432,"orate":2433,"▁miss":2434,"▁ge":2435,"ising":2436,"rif":2437,"▁stare":2438,"ury":2439,"▁rub":2440,"▁search":2441,"▁abuse":2442,"umber":2443,"▁prep":2444,"▁alab":2445,"▁notice":2446,"▁coming":2447,"ager":2448,"agram":2449,"ously":2450,"aves":2451,"▁asks":2452,"▁imperson":2453,"apped":2454,"▁finish":2455,"▁profile":2456,"▁instagram":2457,"▁imaginary":2458,"▁syn":2459,"▁system":2460,"▁minor":2461,"▁flex":2462,"▁collection":2463,"▁quickly":2464,"▁facial":2465,"▁healthy":2466,"▁spirit":2467,"▁clothes":2468,"▁russian":2469,"▁pirate":2470,"▁approach":2471,".wikihow.com/":2472,"ging":2473,"ker":2474,"pe":2475,"ule":2476,"uation":2477,"▁hook":2478,"▁tom":2479,"ows":2480,"▁ful":2481,"▁cake":2482,"ater":2483,"▁done":2484,"▁gri":2485,"▁gard":2486,"▁gift":2487,"isis":2488,"▁oper":2489,"▁ele":2490,"ility":2491,"ifu":2492,"▁kit":2493,"▁shake":2494,"▁rad":2495,"▁dece":2496,"▁spy":2497,"▁true":2498,"▁note":2499,"▁somebody":2500,"▁dry":2501,"▁he's":2502,"ache":2503,"▁worth":2504,"▁offic":2505,"▁someone’s":2506,"ortal":2507,"ips":2508,"▁joke":2509,"▁flat":2510,"▁can't":2511,"▁cheap":2512,"ments":2513,"▁quarant":2514,"▁apple":2515,"ether":2516,"▁personal":2517,"▁self-":2518,"▁calm":2519,"▁medical":2520,"▁thoughts":2521,"▁country":2522,"▁angry":2523,"▁casually":2524,"▁marriage":2525,"▁jerk":2526,"▁techn":2527,"▁pizza":2528,"▁valentine":2529,"ael":2530,"aur":2531,"ij":2532,"ially":2533,"kines":2534,"▁our":2535,"▁hang":2536,"▁ach":2537,"▁astr":2538,"rel":2539,"▁fellow":2540,"▁bond":2541,"▁crip":2542,"▁wa":2543,"▁parr":2544,"enc":2545,"▁might":2546,"▁mr.":2547,"▁infl":2548,"▁lord":2549,"▁rele":2550,"▁whether":2551,"roll":2552,"irm":2553,"iment":2554,"igr":2555,"▁asleep":2556,"andom":2557,"▁vacc":2558,"under":2559,"▁spouse":2560,"antly":2561,"▁trap":2562,"pling":2563,"▁mock":2564,"▁word":2565,"▁poke":2566,"▁roll":2567,"▁clos":2568,"ounce":2569,"▁boys":2570,"▁emb":2571,"....":2572,"▁apply":2573,"▁household":2574,"▁serve":2575,"▁farts":2576,"▁calc":2577,"▁virginity":2578,"▁mentally":2579,"▁wedding":2580,"▁lady":2581,"▁normal":2582,"▁nazi":2583,"▁disguise":2584,"kinesis":2585,"-up":2586,"mer":2587,"ple":2588,"sf":2589,"side":2590,"▁‘":2591,"inc":2592,"▁far":2593,"▁bomb":2594,"▁coun":2595,"on.":2596,"eng":2597,"▁dent":2598,"ision":2599,"ett":2600,"essed":2601,"▁late":2602,"▁lunch":2603,"▁nu":2604,"▁nat":2605,"▁requ":2606,"▁shark":2607,"▁shirt":2608,"igare":2609,"ction":2610,"▁rape":2611,"▁assh":2612,"▁dem":2613,"olve":2614,"▁isn't":2615,"▁product":2616,"▁track":2617,"▁travel":2618,"▁likes":2619,"inea":2620,"▁web":2621,"inky":2622,"▁time.":2623,"▁flav":2624,"▁flash":2625,"▁guinea":2626,"▁remain":2627,"▁snow":2628,"▁cream":2629,"▁compet":2630,"box":2631,"▁subm":2632,"▁discover":2633,"▁telekinesis":2634,"struct":2635,"coming":2636,"▁transform":2637,"▁entire":2638,"▁telepathically":2639,"▁coworker":2640,"▁2019":2641,"▁weekend":2642,"▁tort":2643,"▁michael":2644,"▁audition":2645,"▁piece":2646,"▁morning":2647,"▁garden":2648,"▁crippling":2649,"▁asshole":2650,"aut":2651,"dies":2652,"gar":2653,"iation":2654,"light":2655,"nect":2656,"sc":2657,"sw":2658,"ted":2659,"▁tow":2660,"▁toy":2661,"▁tooth":2662,"▁tong":2663,"▁full":2664,"▁bribe":2665,"▁cigare":2666,"▁warn":2667,"ony":2668,"▁thumb":2669,"▁dang":2670,"▁drop":2671,"▁mut":2672,"▁mouse":2673,"▁gro":2674,"icy":2675,"els":2676,"▁lar":2677,"▁lapt":2678,"▁beach":2679,"▁reve":2680,"▁recre":2681,"▁maint":2682,"▁chines":2683,"▁king":2684,"▁rat":2685,"uth":2686,"▁via":2687,"▁sperm":2688,"anted":2689,"▁traff":2690,"▁dog's":2691,"▁moder":2692,"▁code":2693,"▁news":2694,"▁brush":2695,"▁scream":2696,"▁looks":2697,"▁mean":2698,"▁crisis":2699,"▁days":2700,"ption":2701,"▁swallow":2702,"▁phys":2703,"▁19":2704,"▁butter":2705,"▁subreddit":2706,"▁ghosts":2707,"▁ways":2708,"▁underw":2709,"▁coron":2710,"▁expect":2711,"▁expens":2712,"▁zomb":2713,"▁else":2714,"▁jeff":2715,"▁defend":2716,"▁defeat":2717,"▁urine":2718,"▁salad":2719,"▁epstein":2720,"▁circle":2721,"▁return":2722,"▁prostate":2723,"▁choke":2724,"▁australian":2725,"▁court":2726,"▁emoji":2727,"▁vagina":2728,"▁degree":2729,"▁circum":2730,"▁parrot":2731,"▁torture":2732,"▁laptop":2733,"▁reveal":2734,"▁maintain":2735,"▁chinese":2736,"-in":2737,"aight":2738,"hing":2739,"just":2740,"no":2741,"sd":2742,"til":2743,"ues":2744,"▁$":2745,"▁ver":2746,"▁tick":2747,"▁taste":2748,"▁soup":2749,"▁fash":2750,"▁bit":2751,"▁cash":2752,"orc":2753,"omy":2754,"ars":2755,"▁ok":2756,"▁line":2757,"irus":2758,"▁chin":2759,"▁chall":2760,"▁chair":2761,"amm":2762,"urance":2763,"▁random":2764,"▁telling":2765,"▁conj":2766,"antic":2767,"ational":2768,"▁mods":2769,"▁knock":2770,"▁losing":2771,"▁proud":2772,"▁oral":2773,"▁meal":2774,"▁canad":2775,"▁overcome":2776,"osed":2777,"▁contem":2778,"▁assault":2779,"▁interrog":2780,"▁snack":2781,"▁recycle":2782,"▁she's":2783,"▁special":2784,"▁address":2785,"▁stealing":2786,"▁legs":2787,"▁serv":2788,"▁orgy":2789,"▁edition":2790,"▁autism":2791,"▁minut":2792,"▁potato":2793,"▁apolog":2794,"▁enemy":2795,"▁advice":2796,"▁deli":2797,"▁accidentally":2798,"reme":2799,"▁erection":2800,"▁japanese":2801,"▁altern":2802,"▁alabama":2803,"▁astral":2804,"▁embarr":2805,"▁cigarett":2806,"-g":2807,"ead":2808,"gly":2809,"nt":2810,"off":2811,"▁tv":2812,"▁tiny":2813,"ints":2814,"erb":2815,"▁five":2816,"▁bon":2817,"▁cap":2818,"▁wal":2819,"▁wood":2820,"▁pic":2821,"▁pant":2822,"▁mot":2823,"▁gar":2824,"▁goose":2825,"any":2826,"alia":2827,"arian":2828,"▁ostr":2829,"elly":2830,"▁la":2831,"▁lif":2832,"▁re-":2833,"▁replace":2834,"rix":2835,"roph":2836,"oogle":2837,"▁max":2838,"imp":2839,"▁select":2840,"▁friend.":2841,"▁exer":2842,"▁lip":2843,"▁tea":2844,"▁text":2845,"izing":2846,"▁dragon":2847,"▁afric":2848,"▁clock":2849,"▁brit":2850,"▁scr":2851,"shit":2852,"▁cheese":2853,"▁working":2854,"▁adop":2855,"▁activate":2856,"▁swim":2857,"▁cred":2858,"▁home.":2859,"▁budd":2860,"▁famous":2861,"▁donald":2862,"ocal":2863,"▁loved":2864,"▁diy":2865,"▁memor":2866,"▁guys":2867,"▁insurance":2868,"▁liter":2869,"▁serial":2870,"▁instead":2871,"▁depressed":2872,"▁needs":2873,"▁jew":2874,"▁missing":2875,"▁smoking":2876,"▁rapper":2877,"▁pregnancy":2878,"▁massive":2879,"▁strangers":2880,"▁bullied":2881,"▁wonder":2882,"▁prostitute":2883,"▁erotic":2884,"▁lower":2885,"▁roleplay":2886,"▁creepy":2887,"▁bowl":2888,"▁terms":2889,"▁laser":2890,"▁anti-v":2891,"▁quarantine":2892,"▁achieve":2893,"▁pokemon":2894,"▁recreate":2895,"▁fashion":2896,"▁challen":2897,"11":2898,"born":2899,"for":2900,"iot":2901,"ket":2902,"me":2903,"ox":2904,"pa":2905,"vest":2906,"yard":2907,"▁typ":2908,"▁hur":2909,"▁sad":2910,"erg":2911,"▁fa":2912,"▁coup":2913,"itter":2914,"▁mess":2915,"arate":2916,"▁ner":2917,"▁beast":2918,"▁answ":2919,"▁ul":2920,"▁story":2921,"▁shut":2922,"▁convert":2923,"ably":2924,"▁intim":2925,"▁trash":2926,"▁alph":2927,"▁notic":2928,"▁dog.":2929,"▁moon":2930,"▁dish":2931,"▁disl":2932,"▁loss":2933,"astic":2934,"ards":2935,"▁finding":2936,"irect":2937,"▁content":2938,"ails":2939,"▁impression":2940,"▁pets":2941,"▁she’s":2942,"▁acid":2943,"▁they'":2944,"▁detect":2945,"iously":2946,"▁corp":2947,"▁says":2948,"▁racial":2949,"▁hitler":2950,"▁transition":2951,"▁paying":2952,"▁fantasy":2953,"▁veget":2954,"▁superior":2955,"▁shooting":2956,"▁30":2957,"▁forever":2958,"▁political":2959,"▁object":2960,"▁bedroom":2961,"▁reflect":2962,"▁squir":2963,"▁popular":2964,"▁games":2965,"▁animals":2966,"▁pictures":2967,"▁complete":2968,"▁thanks":2969,"▁juice":2970,"▁receive":2971,"▁judge":2972,"▁unwanted":2973,"▁professional":2974,"▁pedophile":2975,"▁version":2976,"▁street":2977,"▁waifu":2978,"▁tongue":2979,"▁zombie":2980,"-sh":2981,"-fl":2982,"back":2983,"can":2984,"dro":2985,"eb":2986,"ium":2987,"post":2988,"wich":2989,"▁tac":2990,"▁tot":2991,"▁sac":2992,"▁frog":2993,"▁bal":2994,"▁bun":2995,"▁cause":2996,"▁couch":2997,"▁wel":2998,"▁pills":2999,"▁dild":3000,"arc":3001,"▁land":3002,"▁lure":3003,"▁nud":3004,"▁bee":3005,"▁reenact":3006,"illed":3007,"▁ugly":3008,"▁stup":3009,"▁mas":3010,"assing":3011,"urf":3012,"▁ring":3013,"▁jail":3014,"▁tells":3015,"unting":3016,"▁sport":3017,"ablish":3018,"▁exe":3019,"ist.":3020,"▁liz":3021,"iled":3022,"▁cat's":3023,"▁molest":3024,"▁united":3025,"▁worst":3026,"▁offend":3027,"agn":3028,"▁weap":3029,"▁image":3030,"▁smurf":3031,"avirus":3032,"▁crazy":3033,"▁key":3034,"▁cheating":3035,"▁appear":3036,"rench":3037,"▁record":3038,"▁reading":3039,"▁clear":3040,"▁army":3041,"▁invest":3042,"▁straight":3043,"clear":3044,"▁cosby":3045,"▁signific":3046,"▁opin":3047,"▁2020":3048,"▁profit":3049,"▁driving":3050,"▁happen":3051,"▁thanos":3052,"▁selling":3053,"▁entertain":3054,"▁harvest":3055,"▁button":3056,"▁design":3057,"▁resist":3058,"▁boobs":3059,"▁thought":3060,"▁telepathy":3061,"oined":3062,"▁2018":3063,"▁nipple":3064,"▁existence":3065,"▁viol":3066,"▁universe":3067,"▁morse":3068,"▁assassinate":3069,"▁downvote":3070,"▁pillow":3071,"▁lemonade":3072,"▁syndr":3073,"▁closet":3074,"sfw":3075,"▁coronavirus":3076,"▁contempl":3077,"▁anti-vax":3078,"▁squirrel":3079,"**":3080,"-sp":3081,"aim":3082,"lock":3083,"ners":3084,"o.":3085,"ode":3086,"ring":3087,"val":3088,"▁-":3089,"▁[":3090,"▁tax":3091,"▁hist":3092,"▁https://":3093,"▁sens":3094,"▁direct":3095,"itive":3096,"▁mug":3097,"▁gone":3098,"lex":3099,"▁lsd":3100,"ries":3101,"▁whe":3102,"iday":3103,"▁stuck":3104,"roat":3105,"▁choc":3106,"ames":3107,"▁deaf":3108,"▁jaw":3109,"▁spon":3110,"▁friends.":3111,"ulation":3112,"▁pred":3113,"▁prop":3114,"usive":3115,"plant":3116,"▁blame":3117,"▁he’s":3118,"▁pron":3119,"dden":3120,"age.":3121,"▁manage":3122,"▁score":3123,"▁sock":3124,"▁mexic":3125,"ourn":3126,"▁guests":3127,"▁sched":3128,"▁whole":3129,"▁\"the":3130,"▁reality":3131,"▁emotion":3132,"osexual":3133,"▁explore":3134,"▁sniff":3135,"▁school.":3136,"▁aggress":3137,"▁killing":3138,"▁slave":3139,"▁amaz":3140,"▁speed":3141,"ocate":3142,"▁confirm":3143,"▁seeing":3144,"▁anyone":3145,"▁sleeping":3146,"▁victims":3147,"▁breasts":3148,"▁basement":3149,"▁flesh":3150,"▁possessed":3151,"-law":3152,"craft":3153,"▁australia":3154,"▁basic":3155,"▁metal":3156,"▁completely":3157,"▁immigr":3158,"▁holiday":3159,"▁romantic":3160,"▁hiding":3161,"▁sandwich":3162,"▁society":3163,"▁stoned":3164,"▁co-worker":3165,"▁appreciate":3166,"▁techni":3167,"▁nuclear":3168,"▁ostrich":3169,"▁significant":3170,"▁syndrome":3171,"&amp":3172,"-n":3173,"bers":3174,"cd":3175,"cend":3176,"d.":3177,"giving":3178,"ii":3179,"ks":3180,"ma":3181,"mm":3182,"pret":3183,"ta":3184,"tain":3185,"▁hip":3186,"ower":3187,"▁saw":3188,"erate":3189,"▁french":3190,"▁bell":3191,"▁bag":3192,"▁bang":3193,"▁bald":3194,"▁wish":3195,"▁pep":3196,"▁pump":3197,"▁danc":3198,"▁mer":3199,"▁mach":3200,"anch":3201,"ley":3202,"▁inh":3203,"▁laid":3204,"▁whil":3205,"iling":3206,"ilia":3207,"ids":3208,"▁states":3209,"▁china":3210,"▁dol":3211,"▁deform":3212,"▁sugg":3213,"▁spo":3214,"▁leaving":3215,"ement":3216,"▁bob":3217,"▁boot":3218,"▁bodies":3219,"▁grab":3220,"▁ground":3221,"ages":3222,"▁pose":3223,"▁pock":3224,"▁road":3225,"▁people.":3226,"▁smash":3227,"▁life.":3228,"▁cheat":3229,"▁who's":3230,"▁backyard":3231,"▁1st":3232,"apping":3233,"appropri":3234,"▁memes":3235,"▁member":3236,"▁shitty":3237,"▁addict":3238,"▁access":3239,"▁signal":3240,"▁report":3241,"▁repost":3242,"▁ears":3243,"▁painting":3244,"anny":3245,"▁instantly":3246,"▁running":3247,"▁daddy":3248,"▁harass":3249,"▁broken":3250,"▁matrix":3251,"ypse":3252,"▁desp":3253,"▁grandmother":3254,"▁stranger":3255,"▁seconds":3256,"▁establish":3257,"▁terrorist":3258,"▁position":3259,"▁release":3260,"▁competition":3261,"▁large":3262,"▁conjoined":3263,"▁minutes":3264,"ocalypse":3265,"▁thanksgiving":3266,"▁sacrif":3267,"▁stupid":3268,"▁history":3269,"▁chocolate":3270,"▁sponge":3271,"▁schedule":3272,"&amp;":3273,"▁suggest":3274,"-c":3275,"-e":3276,"-st":3277,"aul":3278,"boy":3279,"ees":3280,"fast":3281,"face":3282,"gger":3283,"hy":3284,"iper":3285,"night":3286,"pect":3287,"ru":3288,"▁eth":3289,"▁hack":3290,"▁toget":3291,"▁sant":3292,"erve":3293,"▁bub":3294,"▁cell":3295,"▁corn":3296,"▁could":3297,"▁wake":3298,"▁prim":3299,"▁dam":3300,"▁google":3301,"lets":3302,"▁inappropri":3303,"▁ol":3304,"▁lon":3305,"▁lang":3306,"acial":3307,"▁number":3308,"▁rev":3309,"▁anx":3310,"otyp":3311,"▁stere":3312,"ooked":3313,"▁makes":3314,"▁killed":3315,"ask":3316,"▁suit":3317,"aper":3318,"und":3319,"▁conce":3320,"▁connect":3321,"▁friend’s":3322,"▁outside":3323,"▁tra":3324,"▁comb":3325,"pping":3326,"▁lob":3327,"▁handjob":3328,"▁jokes":3329,"▁smart":3330,"▁partic":3331,"▁schem":3332,"▁workplace":3333,"▁realise":3334,"▁turning":3335,"▁asking":3336,"▁import":3337,"▁breaking":3338,"▁breakfast":3339,"▁carry":3340,"▁bestiality":3341,"▁posts":3342,"▁everything":3343,"▁night.":3344,"ism.":3345,"▁glory":3346,"▁legally":3347,"▁fantasies":3348,"▁consent":3349,"▁evening":3350,"▁educ":3351,"▁enter":3352,"▁drawing":3353,"▁autistic":3354,"000":3355,"▁virus":3356,"▁movement":3357,"▁floating":3358,"▁boob":3359,"▁sweat":3360,"▁restaur":3361,"▁engage":3362,"▁english":3363,"▁won't":3364,"!!!!":3365,"▁didn't":3366,"▁basket":3367,"▁idiot":3368,"▁candy":3369,"▁debt":3370,"▁smuggle":3371,"▁kidnap":3372,"▁afford":3373,"▁screen":3374,"▁suspicious":3375,"▁impersonate":3376,"iju":3377,"▁natural":3378,"▁british":3379,"▁credit":3380,"▁ult":3381,"▁they're":3382,"-flight":3383,"▁contemplate":3384,"▁whilst":3385,"▁dolph":3386,"▁langu":3387,"▁stereotyp":3388,"bri":3389,"bucks":3390,"cies":3391,"eed":3392,"ech":3393,"fer":3394,"iam":3395,"made":3396,"na":3397,"uge":3398,"▁tie":3399,"▁tape":3400,"▁tenn":3401,"▁tatt":3402,"▁hon":3403,"▁hall":3404,"▁hire":3405,"▁todd":3406,"▁yog":3407,"rey":3408,"▁fu":3409,"▁furn":3410,"▁buck":3411,"▁bds":3412,"▁cro":3413,"▁cart":3414,"▁cute":3415,"▁wit":3416,"▁then":3417,"▁du":3418,"▁dab":3419,"▁dys":3420,"itar":3421,"or.":3422,"▁mum":3423,"ised":3424,"▁insp":3425,"▁in-flight":3426,"▁obs":3427,"ician":3428,"▁net":3429,"▁beer":3430,"▁reb":3431,"▁anc":3432,"▁eu":3433,"▁chur":3434,"▁chad":3435,"▁chem":3436,"▁shoul":3437,"▁raid":3438,"▁suc":3439,"▁seat":3440,"ains":3441,"▁spa":3442,"abet":3443,"▁plastic":3444,"ation.":3445,"▁libr":3446,"▁cat.":3447,"▁nothing":3448,"▁blend":3449,"▁dr.":3450,"▁until":3451,"aked":3452,"▁child’s":3453,"▁words":3454,"▁yourself.":3455,"▁grade":3456,"▁click":3457,"▁manager":3458,"▁ride":3459,"▁soap":3460,"▁flight":3461,"ought":3462,"▁work.":3463,"▁writing":3464,"▁quit":3465,"▁quiet":3466,"▁planet":3467,"▁advert":3468,"▁actual":3469,"▁attem":3470,"▁12":3471,"▁18":3472,"▁doctors":3473,"▁homeless":3474,"▁homemade":3475,"▁(for":3476,"▁recover":3477,"▁amp":3478,"issors":3479,"▁diarr":3480,"▁diagn":3481,"▁feelings":3482,"▁armp":3483,"▁members":3484,"▁took":3485,"▁invite":3486,"▁moment":3487,"▁monster":3488,"▁birds":3489,"▁present":3490,"▁artist":3491,"▁football":3492,"▁broke":3493,"▁foreplay":3494,"▁obtain":3495,"▁effic":3496,"▁urge":3497,"▁apart":3498,"▁advances":3499,"▁delicious":3500,"▁shoe":3501,"▁building":3502,"▁respects":3503,"▁teenage":3504,"▁information":3505,"▁turtle":3506,"▁glasses":3507,"▁eggs":3508,"▁idea":3509,"▁mustache":3510,"▁crime":3511,"▁bottle":3512,"▁times":3513,"▁slowly":3514,"ography":3515,"▁december":3516,"▁interrogate":3517,"▁vegetable":3518,"▁lizard":3519,"▁machine":3520,"▁santa":3521,"▁traum":3522,"▁tattoo":3523,"▁bdsm":3524,"▁church":3525,"▁shoulder":3526,"\".":3527,"-1":3528,"0s":3529,"do":3530,"ease":3531,"hom":3532,"hip":3533,"mp":3534,"mem":3535,"m.wikihow.com/":3536,"nger":3537,"pet":3538,"ron":3539,"sel":3540,"uate":3541,"vies":3542,"yl":3543,"yan":3544,"▁*":3545,"▁ess":3546,"▁irl":3547,"▁hyp":3548,"▁towards":3549,"▁said":3550,"ern":3551,"ery":3552,"▁case":3553,"▁throat":3554,"atives":3555,"▁dig":3556,"iture":3557,"▁mine":3558,"▁gerb":3559,"▁opt":3560,"icles":3561,"▁beaut":3562,"▁anus":3563,"idate":3564,"▁mail":3565,"▁chest":3566,"▁chill":3567,"▁rout":3568,"ceed":3569,"verage":3570,"uts":3571,"▁conc":3572,"▁up.":3573,"▁trade":3574,"▁tex":3575,"▁mob":3576,"▁disable":3577,"▁discret":3578,"▁child.":3579,"▁peace":3580,"▁aren't":3581,"▁roast":3582,"▁roof":3583,"▁encour":3584,"▁imitate":3585,"▁brown":3586,"▁brag":3587,"▁man.":3588,"▁hero":3589,"▁guard":3590,"▁cheer":3591,"▁works":3592,"▁faceless":3593,"▁bukk":3594,"▁humans":3595,"▁amount":3596,"▁relig":3597,"▁seek":3598,"▁again.":3599,"▁anything":3600,"▁bigger":3601,"strate":3602,"▁trigger":3603,"▁protest":3604,"▁bathe":3605,"▁vision":3606,"▁neighborhood":3607,"▁elim":3608,"▁robber":3609,"▁sym":3610,"▁potential":3611,"▁incon":3612,"▁pige":3613,"▁solve":3614,"▁easily":3615,"▁belly":3616,"▁promotion":3617,"▁stalking":3618,"▁admit":3619,"▁hostage":3620,"▁overlords":3621,"▁compliment":3622,"▁voices":3623,"▁levitate":3624,"▁hours":3625,"▁deny":3626,"▁officer":3627,"etti":3628,"▁underwear":3629,"▁canadian":3630,"▁deliver":3631,"▁maxim":3632,"▁exercise":3633,"▁challenge":3634,"▁beastiality":3635,"▁answer":3636,"▁taco":3637,"▁pocket":3638,"▁sacrifice":3639,"▁restaurant":3640,"▁encourage":3641,"bi":3642,"bul":3643,"cute":3644,"den":3645,"fit":3646,"hub":3647,"iens":3648,"life":3649,"nes":3650,"nam":3651,"nsfw":3652,"s,":3653,"wart":3654,"walk":3655,"▁ted":3656,"▁hint":3657,"inated":3658,"▁yell":3659,"▁sink":3660,"▁sav":3661,"▁session":3662,"era":3663,"▁fel":3664,"▁ble":3665,"▁cous":3666,"▁py":3667,"▁pes":3668,"▁push":3669,"▁pics":3670,"▁pimp":3671,"atic":3672,"▁dut":3673,"itation":3674,"▁mel":3675,"▁mist":3676,"▁german":3677,"ises":3678,"▁infect":3679,"▁oil":3680,"acu":3681,"▁nick":3682,"▁beard":3683,"vered":3684,"illy":3685,"▁stom":3686,"▁stone":3687,"▁ones":3688,"irty":3689,"▁kitch":3690,"▁shave":3691,"▁ate":3692,"▁fruit":3693,"▁negot":3694,"aining":3695,"▁spit":3696,"▁spoon":3697,"▁isn’t":3698,"▁out.":3699,"▁upcoming":3700,"▁prov":3701,"▁alarm":3702,"▁movies":3703,"pped":3704,"▁here":3705,"▁sex.":3706,"▁env":3707,"▁enlar":3708,"ity.":3709,"▁crit":3710,"▁crash":3711,"▁guitar":3712,"▁day.":3713,"▁snap":3714,"▁r/p":3715,"▁pornhub":3716,"osis":3717,"▁respons":3718,"▁party.":3719,"anced":3720,"▁starbucks":3721,"rope":3722,"▁telekin":3723,"▁growing":3724,"▁demonstrate":3725,"▁hitman":3726,"▁cooking":3727,"▁longer":3728,"▁steps":3729,"▁neighbor's":3730,"▁match":3731,"▁doesn’t":3732,"▁neckbe":3733,"▁apocalypse":3734,"▁dreams":3735,"ologist":3736,"erence":3737,"-to":3738,"▁solid":3739,"legal":3740,"▁shopping":3741,"▁later":3742,"▁breathe":3743,"▁jackson":3744,"aaaaaaaaaaaaaaaa":3745,"▁window":3746,"▁spider-man":3747,"▁absolut":3748,"www":3749,"▁silence":3750,"▁screw":3751,"▁puppy":3752,"▁organize":3753,"▁spray":3754,"▁fulf":3755,"▁danger":3756,"▁traffic":3757,"▁edition)":3758,"▁literally":3759,"drohom":3760,"▁dildo":3761,"▁wheel":3762,"▁together":3763,"▁bubble":3764,"▁anxiety":3765,"▁conceal":3766,"ijuana":3767,"▁ultimate":3768,"▁tennis":3769,"▁yoga":3770,"▁furniture":3771,"▁witness":3772,"▁spagh":3773,"▁diarrhe":3774,"▁gerbil":3775,"▁discretely":3776,"▁bukkake":3777,"▁kitchen":3778,"▁absolutely":3779,"-r":3780,"/11":3781,"con":3782,"dered":3783,"fuck":3784,"ga":3785,"ho":3786,"iest":3787,"ké":3788,"ms":3789,"met":3790,"mates":3791,"ned":3792,"te":3793,"zz":3794,"▁il":3795,"▁ta":3796,"▁tast":3797,"▁hug":3798,"▁hunt":3799,"▁tonight":3800,"inity":3801,"▁yet":3802,"▁sight":3803,"▁sold":3804,"▁born":3805,"▁wolf":3806,"▁wipe":3807,"▁pan":3808,"▁portal":3809,"▁dat":3810,"▁dong":3811,"▁dump":3812,"▁dirty":3813,"▁mac":3814,"▁gas":3815,"▁gently":3816,"inger":3817,"aring":3818,"▁lick":3819,"acked":3820,"stick":3821,"▁reduce":3822,"▁equ":3823,"▁stab":3824,"▁stock":3825,"edi":3826,"▁chang":3827,"▁kink":3828,"▁karate":3829,"▁shr":3830,"oli":3831,"▁van":3832,"▁vill":3833,"▁vape":3834,"geon":3835,"▁is.":3836,"▁press":3837,"▁plants":3838,"▁lips":3839,"▁cat’s":3840,"▁alive":3841,"▁alleg":3842,"▁also":3843,"▁aliens":3844,"thy":3845,"▁comes":3846,"▁knife":3847,"▁heav":3848,"▁unlock":3849,"▁worship":3850,"▁grass":3851,"▁arouse":3852,"ague":3853,"▁clim":3854,"▁scissors":3855,"ipate":3856,"▁rip":3857,"▁orig":3858,"▁bread":3859,"▁flu":3860,"avity":3861,"▁guide":3862,"▁guess":3863,"▁starts":3864,"▁dealer":3865,"ased":3866,"▁quality":3867,"▁owner":3868,"▁face.":3869,"▁sniper":3870,"▁13":3871,"▁reddit.":3872,"▁speech":3873,"▁relax":3874,"▁himself":3875,"▁convention":3876,"▁themsel":3877,"▁mario":3878,"▁insert":3879,"▁eyebr":3880,"▁presc":3881,"lete":3882,"▁summer":3883,"▁profess":3884,"▁called":3885,"▁50":3886,"▁trees":3887,"▁consider":3888,"ucked":3889,"▁elder":3890,"▁favour":3891,"▁jeal":3892,"▁incor":3893,"▁fired":3894,"▁refuse":3895,"▁freak":3896,"▁epis":3897,"▁massage":3898,"▁promote":3899,"▁students":3900,"▁fanf":3901,"▁psychic":3902,"▁burg":3903,"▁comfortable":3904,"▁latest":3905,"▁admire":3906,"▁alcoholic":3907,"▁lesson":3908,"▁ideas":3909,"▁customer":3910,"▁affair":3911,"olution":3912,"▁poorly":3913,"▁privile":3914,"▁therapy":3915,"▁therapist":3916,"▁banana":3917,"ency":3918,"▁dentist":3919,"▁grocer":3920,"▁modern":3921,"▁jeffrey":3922,"▁service":3923,"▁apologize":3924,"▁boner":3925,"▁capital":3926,"▁objects":3927,"▁weapon":3928,"▁pronounce":3929,"▁halluc":3930,"▁library":3931,"▁minecraft":3932,"▁pesky":3933,"▁spaghetti":3934,"kémon":3935,"-y":3936,"duc":3937,"ew":3938,"force":3939,"feed":3940,"ges":3941,"jo":3942,"lam":3943,"ming":3944,"more":3945,"nic":3946,"noc":3947,"ware":3948,"wood":3949,"wash":3950,"ye":3951,"▁#":3952,"▁ing":3953,"▁tits":3954,"▁hill":3955,"▁huge":3956,"▁aim":3957,"inj":3958,"▁yard":3959,"▁sor":3960,"▁san":3961,"▁sort":3962,"▁sib":3963,"reg":3964,"▁fro":3965,"▁fab":3966,"▁coo":3967,"▁wrest":3968,"▁pair":3969,"▁paul":3970,"▁dum":3971,"▁dumb":3972,"itiz":3973,"orter":3974,"▁mal":3975,"▁mate":3976,"▁mart":3977,"▁mood":3978,"▁mort":3979,"▁mix":3980,"isc":3981,"ica":3982,"ication":3983,"▁lot":3984,"▁nam":3985,"▁nap":3986,"▁nail":3987,"▁narc":3988,"▁ninj":3989,"▁reason":3990,"▁whis":3991,"▁stash":3992,"▁stret":3993,"▁ket":3994,"▁shap":3995,"ands":3996,"▁sugar":3997,"▁sudden":3998,"▁vom":3999}