{"<unk>":0,".":1,"0":2,"1":3,"2":4,"3":5,"4":6,"5":7,"6":8,"7":9,"8":10,"9":11,"I":12,"M":13,"P":14,"R":15,"T":16,"a":17,"b":18,"c":19,"d":20,"e":21,"f":22,"g":23,"h":24,"i":25,"j":26,"k":27,"l":28,"m":29,"n":30,"o":31,"p":32,"q":33,"r":34,"s":35,"t":36,"u":37,"v":38,"w":39,"x":40,"y":41,"z":42,"¢":43,"©":44,"®":45,"°":46,"à":47,"ä":48,"é":49,"í":50,"ñ":51,"ö":52,"ü":53,"ţ":54,"ʖ":55,"̀":56,"́":57,"̂":58,"̃":59,"̄":60,"̅":61,"̆":62,"̇":63,"̈":64,"̊":65,"̌":66,"̍":67,"̏":68,"̓":69,"̔":70,"̕":71,"̖":72,"̗":73,"̘":74,"̙":75,"̚":76,"̛":77,"̞":78,"̢":79,"̯":80,"̴":81,"̷":82,"̸":83,"̹":84,"̺":85,"̽":86,"̾":87,"͉":88,"͋":89,"͌":90,"͎":91,"͐":92,"͑":93,"͒":94,"͓":95,"͗":96,"͘":97,"͙":98,"͚":99,"͜":100,"͠":101,"͡":102,"е":103,"​":104,"‍":105,"‏":106,"‐":107,"—":108,"‘":109,"’":110,"“":111,"”":112,"„":113,"•":114,"▁":115,"⚠":116,"「":117,"」":118,"『":119,"』":120,"丅":121,"乂":122,"乇":123,"匚":124,"卂":125,"卄":126,"尺":127,"工":128,"️":129,"🌈":130,"🍆":131,"🍹":132,"🎵":133,"🎶":134,"🏳":135,"👄":136,"👌":137,"👮":138,"💥":139,"💦":140,"😍":141,"😫":142,"🥜":143,"🥪":144,"🥴":145,"🦖":146,"▁t":147,"▁h":148,"▁to":149,"ow":150,"▁how":151,"▁a":152,"ou":153,"in":154,"▁y":155,"▁you":156,"▁s":157,"▁your":158,"er":159,"re":160,"▁f":161,"▁b":162,"▁c":163,"▁p":164,"on":165,"▁w":166,"▁th":167,"en":168,"at":169,"▁d":170,"it":171,"or":172,"▁g":173,"▁m":174,"an":175,"▁the":176,"ing":177,"le":178,"al":179,"is":180,"om":181,"et":182,"ar":183,"▁in":184,"es":185,"▁o":186,"ic":187,"▁l":188,"el":189,"ke":190,"ac":191,"▁be":192,"▁n":193,"ve":194,"▁an":195,"st":196,"ri":197,"▁of":198,"▁wit":199,"▁re":200,"▁with":201,"▁e":202,"ot":203,"il":204,"▁st":205,"▁u":206,"▁wh":207,"id":208,"ed":209,"▁for":210,"ro":211,"ion":212,"▁get":213,"ir":214,"se":215,"oo":216,"end":217,"▁ma":218,"▁on":219,"ly":220,"if":221,"out":222,"ay":223,"▁ch":224,"ome":225,"ur":226,"ss":227,"▁k":228,"ent":229,"ate":230,"im":231,"ra":232,"ig":233,"ct":234,"ch":235,"▁sh":236,"▁ha":237,"ell":238,"▁do":239,"op":240,"am":241,"riend":242,"▁make":243,"ter":244,"▁de":245,"ce":246,"▁at":247,"ad":248,"ol":249,"▁fr":250,"ver":251,"and":252,"one":253,"▁j":254,"▁se":255,"▁from":256,"un":257,"art":258,"▁v":259,"▁tell":260,"as":261,"▁as":262,"▁ne":263,"▁r":264,"ut":265,"▁su":266,"▁that":267,"ck":268,"▁li":269,"▁when":270,"are":271,"▁if":272,"ge":273,"ant":274,"▁sp":275,"▁con":276,"ul":277,"ers":278,"▁friend":279,"▁and":280,"ist":281,"▁pre":282,"ind":283,"igh":284,"ive":285,"pp":286,"▁is":287,"est":288,"▁le":289,"▁out":290,"▁ex":291,"ation":292,"um":293,"▁up":294,"▁ab":295,"▁pl":296,"▁pro":297,"ack":298,"▁have":299,"▁int":300,"▁te":301,"ab":302,"ill":303,"us":304,"act":305,"▁cat":306,"ide":307,"ild":308,"ain":309,"▁some":310,"▁bo":311,"ile":312,"▁like":313,"ick":314,"ap":315,"▁not":316,"all":317,"▁bec":318,"▁dog":319,"▁lo":320,"ice":321,"▁al":322,"ep":323,"em":324,"gh":325,"pl":326,"ect":327,"▁mo":328,"ine":329,"▁com":330,"▁about":331,"▁bl":332,"elf":333,"▁kn":334,"ally":335,"th":336,"▁dis":337,"irl":338,"ook":339,"ast":340,"ure":341,"iz":342,"▁into":343,"▁un":344,"ake":345,"▁become":346,"▁pe":347,"’s":348,"▁child":349,"▁sex":350,"▁pr":351,"ach":352,"ood":353,"own":354,"▁girl":355,"ak":356,"per":357,"ess":358,"▁know":359,"ie":360,"▁it":361,"ight":362,"ish":363,"qu":364,"▁someone":365,"▁wor":366,"▁af":367,"dd":368,"▁by":369,"▁he":370,"▁off":371,"self":372,"ife":373,"▁po":374,"der":375,"▁co":376,"▁use":377,"▁ar":378,"▁go":379,"ard":380,"▁find":381,"friend":382,"ry":383,"▁yourself":384,"▁en":385,"ress":386,"ite":387,"▁are":388,"nt":389,"ace":390,"▁ro":391,"ath":392,"ag":393,"▁im":394,"▁dr":395,"ime":396,"ore":397,"▁cl":398,"▁friends":399,"▁after":400,"ople":401,"▁we":402,"ub":403,"▁ri":404,"ink":405,"▁people":406,"▁hand":407,"ool":408,"ies":409,"▁new":410,"alk":411,"ip":412,"ort":413,"▁man":414,"ize":415,"▁ra":416,"▁while":417,"oth":418,"pare":419,"▁show":420,"▁sc":421,"age":422,"ial":423,"▁or":424,"▁stop":425,"▁fe":426,"ian":427,"▁tr":428,"iv":429,"ity":430,"▁jo":431,"▁give":432,"▁gr":433,"ous":434,"ust":435,"ass":436,"▁prepare":437,"▁bre":438,"ame":439,"▁part":440,"▁start":441,"▁sch":442,"▁us":443,"ting":444,"urn":445,"orn":446,"oid":447,"▁av":448,"▁kid":449,"▁look":450,"ire":451,"sh":452,"ict":453,"▁act":454,"▁sm":455,"ud":456,"▁what":457,"▁deal":458,"▁fl":459,"▁over":460,"▁no":461,"▁time":462,"orm":463,"▁being":464,"▁me":465,"▁tra":466,"▁youre":467,"ating":468,"ug":469,"▁play":470,"▁per":471,"ff":472,"ber":473,"▁wat":474,"oy":475,"▁avoid":476,"sp":477,"▁teach":478,"▁life":479,"▁ac":480,"ld":481,"▁boy":482,"mon":483,"uck":484,"▁her":485,"▁gu":486,"▁che":487,"ise":488,"ance":489,"▁ke":490,"ident":491,"ne":492,"ang":493,"▁proper":494,"av":495,"ble":496,"▁so":497,"▁work":498,"ong":499,"ase":500,"og":501,"▁inter":502,"ely":503,"▁sur":504,"ost":505,"▁qu":506,"▁br":507,"▁school":508,"au":509,"our":510,"▁att":511,"▁col":512,"▁you’":513,"▁talk":514,"erm":515,"ner":516,"ough":517,"▁em":518,"▁plan":519,"▁ad":520,"oun":521,"▁wr":522,"▁girlfriend":523,"pt":524,"ment":525,"▁back":526,"ign":527,"cre":528,"▁rem":529,"▁without":530,"▁ass":531,"▁keep":532,"▁take":533,"os":534,"▁let":535,"▁good":536,"▁can":537,"▁imp":538,"▁using":539,"form":540,"▁hide":541,"ree":542,"▁cre":543,"erson":544,"ving":545,"ual":546,"▁turn":547,"ere":548,"▁thr":549,"ans":550,"able":551,"▁properly":552,"▁own":553,"▁ph":554,"▁cont":555,"▁comm":556,"ont":557,"▁day":558,"▁his":559,"▁real":560,"dy":561,"uce":562,"▁sa":563,"▁app":564,"other":565,"ily":566,"▁home":567,"ouse":568,"▁sw":569,"▁all":570,"▁ask":571,"▁bab":572,"ddit":573,"▁tw":574,"ond":575,"▁who":576,"ult":577,"▁mar":578,"iss":579,"▁aw":580,"▁sn":581,"▁ey":582,"ear":583,"xt":584,"old":585,"ph":586,"eth":587,"▁1":588,"▁one":589,"▁baby":590,"▁pet":591,"ail":592,"ence":593,"oot":594,"▁2":595,"▁fam":596,"ird":597,"ash":598,"▁you’re":599,"ose":600,"ia":601,"int":602,"▁porn":603,"▁date":604,"ich":605,"de":606,"▁fun":607,"▁bu":608,"▁cle":609,"▁person":610,"ors":611,"▁expl":612,"▁hel":613,"▁face":614,"▁eat":615,"▁ag":616,"▁cop":617,"br":618,"tle":619,"▁rec":620,"ght":621,"▁kill":622,"▁react":623,"▁mast":624,"▁love":625,"▁down":626,"arm":627,"▁break":628,"▁cr":629,"irst":630,"▁doct":631,"ue":632,"ank":633,"ound":634,"ens":635,"▁reddit":636,"ren":637,"▁boyfriend":638,"get":639,"▁di":640,"▁wom":641,"▁help":642,"ik":643,"very":644,"arent":645,"▁read":646,"▁pol":647,"▁ste":648,"amp":649,"▁dec":650,"▁parent":651,"▁win":652,"▁rel":653,"▁add":654,"▁sl":655,"les":656,"oney":657,"▁hum":658,"▁am":659,"urb":660,"uring":661,"reat":662,"▁ev":663,"▁pract":664,"▁kids":665,"▁first":666,"ful":667,"▁clean":668,"▁but":669,"play":670,"▁gh":671,"▁family":672,"▁fet":673,"▁doctor":674,"▁pen":675,"▁comp":676,"▁rid":677,"▁practice":678,"▁think":679,"▁black":680,"ney":681,"ord":682,"▁money":683,"▁neigh":684,"▁drug":685,"▁ghost":686,"▁neighb":687,"▁pub":688,"▁want":689,"▁during":690,"ger":691,"▁next":692,"▁high":693,"ert":694,"ll":695,"up":696,"ock":697,"▁cow":698,"▁getting":699,"▁has":700,"▁conf":701,"▁watch":702,"▁ident":703,"▁sk":704,"▁way":705,"▁resp":706,"▁spe":707,"bo":708,"lic":709,"▁dra":710,"arn":711,"▁under":712,"oc":713,"▁best":714,"▁wife":715,"ify":716,"▁explain":717,"▁house":718,"leep":719,"iki":720,"▁det":721,"ition":722,"▁gay":723,"▁their":724,"▁hair":725,"▁feel":726,"▁train":727,"▁fetish":728,"▁car":729,"ush":730,"▁post":731,"▁party":732,"▁cope":733,"press":734,"▁guy":735,"joy":736,"vers":737,"▁more":738,"▁write":739,"be":740,"how":741,"lect":742,"▁pret":743,"▁surv":744,"▁head":745,"ave":746,"cc":747,"▁ru":748,"▁sub":749,"▁enjoy":750,"▁check":751,"▁away":752,"vie":753,"▁parents":754,"▁mem":755,"ings":756,"oose":757,"▁through":758,"▁masturb":759,"▁gra":760,"esc":761,"▁see":762,"augh":763,"▁fur":764,"▁care":765,"▁arm":766,"ikihow":767,"ci":768,"uch":769,"▁right":770,"▁him":771,"▁star":772,"▁survive":773,"▁“":774,"▁fin":775,"▁night":776,"▁shit":777,"▁acc":778,"▁conv":779,"▁public":780,"▁put":781,"ork":782,"▁drink":783,"▁human":784,"ually":785,"▁bad":786,"▁pick":787,"anc":788,"▁she":789,"fect":790,"▁cou":791,"itch":792,"ract":793,"▁this":794,"ark":795,"ary":796,"▁perform":797,"▁water":798,"app":799,"bs":800,"ty":801,"vel":802,"▁hot":803,"▁they":804,"▁inv":805,"▁just":806,"▁again":807,"▁too":808,"ions":809,"aw":810,"co":811,"▁cor":812,"ked":813,"ump":814,"▁steal":815,"ds":816,"ts":817,"▁end":818,"▁every":819,"iction":820,"acation":821,"▁having":822,"ute":823,"ical":824,"▁cos":825,"▁son":826,"▁fing":827,"▁game":828,"ism":829,"▁oth":830,"▁rac":831,"▁job":832,"ious":833,"▁say":834,"▁them":835,"ull":836,"ince":837,"▁sleep":838,"▁big":839,"▁grand":840,"ship":841,"▁penis":842,"▁identify":843,"▁ser":844,"▁pretend":845,"▁hor":846,"▁leg":847,"▁commun":848,"vot":849,"▁sed":850,"▁fuck":851,"▁lit":852,"day":853,"ft":854,"▁mon":855,"▁any":856,"rop":857,"▁prot":858,"ob":859,"▁sign":860,"▁call":861,"▁white":862,"▁body":863,"▁year":864,"ster":865,"cept":866,"een":867,"gin":868,"▁tri":869,"ated":870,"▁mom":871,"▁ins":872,"▁demon":873,"ject":874,"▁bet":875,"▁sure":876,"▁succ":877,"▁its":878,"▁hands":879,"fore":880,"ape":881,"▁grow":882,"▁convince":883,"▁mur":884,"omin":885,"▁rep":886,"▁eye":887,"▁er":888,"▁food":889,"▁ball":890,"▁wikihow":891,"▁gl":892,"ister":893,"▁before":894,"▁chr":895,"▁tele":896,"▁bird":897,"ange":898,"▁dead":899,"▁spot":900,"cle":901,"duce":902,"ower":903,"▁fart":904,"▁furry":905,"ient":906,"ror":907,"ys":908,"▁i":909,"▁long":910,"room":911,"▁create":912,"▁20":913,"▁3":914,"▁ce":915,"ones":916,"▁will":917,"▁ann":918,"▁ear":919,"▁choose":920,"▁loc":921,"▁blow":922,"▁wear":923,"▁murder":924,"vent":925,"▁fight":926,"▁inst":927,"▁where":928,"oop":929,"▁children":930,"▁org":931,"▁trans":932,"▁seduce":933,"aa":934,"use":935,"ream":936,"▁come":937,"▁pay":938,"▁pun":939,"▁op":940,"▁sexual":941,"air":942,"bit":943,"com":944,"ory":945,"less":946,"als":947,"▁decide":948,"du":949,"line":950,"▁hit":951,"▁gre":952,"▁shoot":953,"▁run":954,"▁prof":955,"▁woman":956,"▁cosplay":957,"▁z":958,"▁ve":959,"ines":960,"▁cal":961,"▁live":962,"antas":963,"▁pres":964,"▁attack":965,"ale":966,"ole":967,"▁fantas":968,"▁bra":969,"▁dri":970,"ics":971,"▁list":972,"ermine":973,"▁draw":974,"▁pain":975,"▁dress":976,"▁only":977,"▁sum":978,"▁relation":979,"▁success":980,"’t":981,"▁test":982,"▁lose":983,"▁movie":984,"▁ready":985,"▁determine":986,"ee":987,"▁ple":988,"▁old":989,"▁cele":990,"fer":991,"▁domin":992,"ically":993,"▁step":994,"▁vis":995,"▁super":996,"▁ext":997,"▁perfect":998,"▁eyes":999,"▁addiction":1000,"man":1001,"▁cook":1002,"let":1003,"▁stay":1004,"asure":1005,"▁intern":1006,"cret":1007,"▁phone":1008,"▁celebr":1009,"▁5":1010,"▁din":1011,"▁happ":1012,"▁death":1013,"ants":1014,"aper":1015,"ember":1016,"▁twin":1017,"▁drugs":1018,"cial":1019,"gn":1020,"ib":1021,"ipp":1022,"uss":1023,"▁self":1024,"rect":1025,"ons":1026,"▁mus":1027,"▁been":1028,"▁really":1029,"▁accept":1030,"▁christ":1031,"▁relationship":1032,"ible":1033,"▁bath":1034,"▁world":1035,"ax":1036,"▁free":1037,"▁war":1038,"▁vir":1039,"▁sing":1040,"▁fish":1041,"ann":1042,"rim":1043,"▁room":1044,"▁remember":1045,"he":1046,"▁pass":1047,"▁je":1048,"▁prevent":1049,"▁partner":1050,"▁speak":1051,"az":1052,"band":1053,"pe":1054,"▁sy":1055,"▁poop":1056,"▁don":1057,"outh":1058,"ade":1059,"▁horse":1060,"io":1061,"ling":1062,"ove":1063,"ret":1064,"▁dad":1065,"ender":1066,"▁chick":1067,"▁ham":1068,"▁impress":1069,"▁har":1070,"▁inf":1071,"▁suic":1072,"ills":1073,"▁rab":1074,"▁successful":1075,"▁el":1076,"▁ent":1077,"▁sell":1078,"▁dance":1079,"▁dont":1080,"usband":1081,"▁art":1082,"▁other":1083,"▁pot":1084,"▁mind":1085,"ison":1086,"▁bed":1087,"str":1088,"▁str":1089,"▁char":1090,"▁cons":1091,"▁imag":1092,"▁dinner":1093,"ps":1094,"▁treat":1095,"▁aut":1096,"eric":1097,"▁meet":1098,"▁buy":1099,"▁little":1100,"king":1101,"▁hold":1102,"▁husband":1103,"▁fore":1104,"▁class":1105,"aughter":1106,"▁annoy":1107,"▁internet":1108,"▁esc":1109,"▁foot":1110,"▁cra":1111,"▁med":1112,"▁inc":1113,"icate":1114,"▁upvot":1115,"▁blind":1116,"▁rob":1117,"avor":1118,"▁respond":1119,"▁sat":1120,"▁depress":1121,"▁cats":1122,"▁colle":1123,"▁saf":1124,"arma":1125,"▁ruin":1126,"▁finger":1127,"▁stud":1128,"▁vict":1129,"▁need":1130,"▁join":1131,"▁celebrate":1132,"▁suicide":1133,"▁air":1134,"▁gen":1135,"▁last":1136,"▁karma":1137,"▁vamp":1138,"▁supp":1139,"neyv":1140,"▁against":1141,"ball":1142,"gg":1143,"▁toile":1144,"▁sou":1145,"▁pig":1146,"ates":1147,"▁ob":1148,"▁eating":1149,"irt":1150,"unk":1151,"▁catch":1152,"▁god":1153,"▁realize":1154,"▁save":1155,"▁cowork":1156,"▁correct":1157,"▁protect":1158,"▁summon":1159,"neyvacation":1160,"00":1161,"by":1162,"kes":1163,"ward":1164,"▁ter":1165,"▁set":1166,"▁dick":1167,"its":1168,"stand":1169,"▁reg":1170,"▁stand":1171,"▁shad":1172,"▁intro":1173,"▁contro":1174,"▁rabbit":1175,"▁toilet":1176,"fort":1177,"▁min":1178,"▁ur":1179,"▁secret":1180,"▁neck":1181,"▁coc":1182,"▁feed":1183,"▁butt":1184,"▁ign":1185,"▁bir":1186,"▁mid":1187,"▁eff":1188,"▁def":1189,"▁boss":1190,"▁handle":1191,"▁breast":1192,"▁victim":1193,"cer":1194,"iant":1195,"ness":1196,"yle":1197,"ould":1198,"rees":1199,"▁bro":1200,"▁par":1201,"▁than":1202,"oph":1203,"▁spice":1204,"▁exp":1205,"▁commit":1206,"▁americ":1207,"▁even":1208,"ien":1209,"pr":1210,"pose":1211,"ves":1212,"inate":1213,"▁fre":1214,"▁cut":1215,"▁cool":1216,"▁dist":1217,"▁mouth":1218,"led":1219,"▁online":1220,"▁rd":1221,"▁mark":1222,"▁college":1223,"▁vampire":1224,"uff":1225,"▁try":1226,"▁pat":1227,"▁mat":1228,"▁much":1229,"▁ed":1230,"▁learn":1231,"umb":1232,"▁women":1233,"▁polit":1234,"▁pop":1235,"ator":1236,"ese":1237,"▁anime":1238,"▁suck":1239,"▁pregn":1240,"▁disc":1241,"blem":1242,"▁police":1243,"▁open":1244,"▁birth":1245,"ix":1246,"▁bus":1247,"▁giant":1248,"▁my":1249,"▁beh":1250,"ribe":1251,"▁res":1252,"▁problem":1253,"allow":1254,"▁brother":1255,"gan":1256,"▁sister":1257,"▁fake":1258,"▁fire":1259,"▁book":1260,"iting":1261,"▁anim":1262,"▁teen":1263,"aine":1264,"▁heal":1265,"▁enem":1266,"▁wee":1267,"iving":1268,"▁smo":1269,"▁remove":1270,"▁sne":1271,"▁daughter":1272,"▁force":1273,"inder":1274,"▁dogs":1275,"aking":1276,"▁two":1277,"▁neighbors":1278,"iate":1279,"ler":1280,"sy":1281,"▁des":1282,"▁dream":1283,"▁men":1284,"▁mother":1285,"isneyvacation":1286,"ention":1287,"ations":1288,"apt":1289,"▁trick":1290,"ively":1291,"ogn":1292,"▁cocaine":1293,"▁paper":1294,"▁walk":1295,"olog":1296,"▁girls":1297,"▁count":1298,"▁rdisneyvacation":1299,"hol":1300,"ina":1301,"▁fall":1302,"enn":1303,"▁incre":1304,"▁rest":1305,"▁vide":1306,"▁neighbor":1307,"▁grandm":1308,"▁introduce":1309,"▁ignore":1310,"path":1311,"iness":1312,"▁favor":1313,"▁pri":1314,"▁wa":1315,"vert":1316,"▁sec":1317,"ession":1318,"▁rock":1319,"▁crush":1320,"▁communicate":1321,"▁virgin":1322,"▁favorite":1323,"uter":1324,"ven":1325,"way":1326,"▁ap":1327,"▁fem":1328,"▁bat":1329,"▁power":1330,"▁was":1331,"▁wash":1332,"▁gang":1333,"▁does":1334,"ulate":1335,"▁disney":1336,"▁pee":1337,"▁nose":1338,"▁adv":1339,"▁throw":1340,"▁escape":1341,"▁control":1342,"tub":1343,"▁hy":1344,"ows":1345,"▁sit":1346,"▁fail":1347,"▁boo":1348,"▁bul":1349,"▁cult":1350,"ane":1351,"key":1352,"ram":1353,"▁shower":1354,"▁local":1355,"▁dominance":1356,"ng":1357,"▁tar":1358,"▁sal":1359,"▁gam":1360,"▁ref":1361,"▁quest":1362,"▁attract":1363,"▁swe":1364,"▁recogn":1365,"▁hamster":1366,"▁sol":1367,"▁red":1368,"▁front":1369,"▁convers":1370,"pper":1371,"aste":1372,"▁going":1373,"▁collect":1374,"▁trip":1375,"▁happy":1376,"tt":1377,"▁eas":1378,"▁move":1379,"▁it’s":1380,"▁eng":1381,"▁wrong":1382,"▁finally":1383,"▁racist":1384,"▁chicken":1385,"▁pict":1386,"▁those":1387,"▁change":1388,"▁poss":1389,"▁arg":1390,"▁trump":1391,"▁flo":1392,"▁understand":1393,"▁everyone":1394,"▁erect":1395,"▁listen":1396,"gic":1397,"owers":1398,"eral":1399,"▁dif":1400,"▁laugh":1401,"rog":1402,"▁mass":1403,"▁never":1404,"▁teeth":1405,"▁smell":1406,"▁social":1407,"▁picture":1408,"job":1409,"▁tinder":1410,"▁touch":1411,"▁squ":1412,"rest":1413,"▁fig":1414,"▁fact":1415,"▁bud":1416,"▁psy":1417,"▁wif":1418,"▁threes":1419,"ities":1420,"▁mir":1421,"omb":1422,"▁beat":1423,"▁ant":1424,"▁which":1425,"ction":1426,"▁blood":1427,"▁heart":1428,"▁psych":1429,"ience":1430,"sb":1431,"▁youve":1432,"▁sun":1433,"▁bar":1434,"▁met":1435,"alian":1436,"▁another":1437,"ather":1438,"▁teacher":1439,"▁computer":1440,"▁meme":1441,"▁career":1442,"▁soul":1443,"▁shadow":1444,"▁sneak":1445,"▁increase":1446,"▁threesome":1447,"oin":1448,"oon":1449,"uc":1450,"▁4":1451,"ins":1452,"▁fan":1453,"▁fast":1454,"▁dest":1455,"▁anal":1456,"rove":1457,"ents":1458,"▁should":1459,"olf":1460,"ular":1461,"▁drunk":1462,"▁health":1463,"ior":1464,"oint":1465,"▁x":1466,"▁fle":1467,"▁cau":1468,"▁past":1469,"▁del":1470,"ross":1471,"ift":1472,"▁kiss":1473,"unt":1474,"istic":1475,"▁lesb":1476,"▁express":1477,"▁disapp":1478,"▁rap":1479,"ustr":1480,"▁quick":1481,"▁masturbate":1482,"▁telepath":1483,"▁vegan":1484,"▁president":1485,"▁video":1486,"▁lesbian":1487,"come":1488,"gy":1489,"ny":1490,"▁hom":1491,"▁base":1492,"▁card":1493,"▁pur":1494,"▁nut":1495,"▁stri":1496,"▁stalk":1497,"▁why":1498,"▁vi":1499,"▁leave":1500,"▁cock":1501,"▁fear":1502,"▁skin":1503,"▁better":1504,"▁201":1505,"▁fantasize":1506,"▁music":1507,"▁depression":1508,"▁effect":1509,"▁business":1510,"mber":1511,"od":1512,"ric":1513,"ween":1514,"▁youtub":1515,"▁fat":1516,"▁fac":1517,"▁bel":1518,"▁though":1519,"▁light":1520,"▁nipp":1521,"▁ang":1522,"▁store":1523,"▁male":1524,"unch":1525,"▁spid":1526,"▁around":1527,"▁surpr":1528,"▁assert":1529,"▁between":1530,"▁greet":1531,"▁female":1532,"▁conversation":1533,"▁differ":1534,"▁figure":1535,"ah":1536,"mas":1537,"over":1538,"▁fil":1539,"▁bitch":1540,"▁bull":1541,"▁pants":1542,"▁desc":1543,"▁ret":1544,"▁sho":1545,"▁prost":1546,"▁box":1547,"place":1548,"▁most":1549,"▁role":1550,"▁cann":1551,"▁phot":1552,"▁accident":1553,"▁punch":1554,"▁brain":1555,"▁birthday":1556,"▁hard":1557,"ount":1558,"▁bill":1559,"▁cir":1560,"▁cure":1561,"▁things":1562,"▁miss":1563,"ices":1564,"▁ep":1565,"▁area":1566,"▁marri":1567,"▁budget":1568,"af":1569,"ding":1570,"ww":1571,"▁sim":1572,"read":1573,"▁bur":1574,"▁mill":1575,"oll":1576,"▁exam":1577,"ume":1578,"▁club":1579,"▁build":1580,"▁years":1581,"▁balls":1582,"aaaa":1583,"▁strang":1584,"▁annoying":1585,"book":1586,"men":1587,"▁tree":1588,"enc":1589,"ene":1590,"ited":1591,"leg":1592,"▁name":1593,"otion":1594,"▁style":1595,"roy":1596,"▁cho":1597,"▁vacation":1598,"ument":1599,"▁someones":1600,"▁alien":1601,"▁dispose":1602,"▁prank":1603,"▁looking":1604,"▁snake":1605,"▁respect":1606,"cohol":1607,"▁drive":1608,"▁upvotes":1609,"▁correctly":1610,"▁erection":1611,"▁mirror":1612,"cl":1613,"dle":1614,"ning":1615,"▁host":1616,"▁size":1617,"▁wall":1618,"orce":1619,"▁got":1620,"▁mil":1621,"▁ment":1622,"▁nat":1623,"▁val":1624,"aren":1625,"▁exist":1626,"▁exper":1627,"▁alcohol":1628,"▁weird":1629,"▁grou":1630,"▁emo":1631,"▁adm":1632,"board":1633,"▁extra":1634,"▁christmas":1635,"▁wifi":1636,"▁destroy":1637,"▁youtube":1638,"20":1639,"lish":1640,"ru":1641,"row":1642,"▁hat":1643,"▁bow":1644,"▁cas":1645,"▁park":1646,"▁great":1647,"▁ind":1648,"▁still":1649,"▁form":1650,"imate":1651,"▁doll":1652,"▁prom":1653,"▁prison":1654,"▁you’ve":1655,"erman":1656,"▁master":1657,"▁confr":1658,"▁skills":1659,"body":1660,"▁bathroom":1661,"▁second":1662,"▁recognize":1663,"▁surprise":1664,"fy":1665,"ier":1666,"iet":1667,"son":1668,"ten":1669,"ym":1670,"▁ice":1671,"▁tur":1672,"rem":1673,"▁piss":1674,"itate":1675,"▁shot":1676,"▁dev":1677,"▁uni":1678,"▁ens":1679,"▁scare":1680,"▁improve":1681,"▁thinking":1682,"▁week":1683,"▁group":1684,"▁confront":1685,"aid":1686,"dr":1687,"hn":1688,"ied":1689,"▁fut":1690,"▁cast":1691,"▁pu":1692,"▁wed":1693,"ative":1694,"lest":1695,"alf":1696,"ality":1697,"▁inner":1698,"▁lat":1699,"▁lad":1700,"acter":1701,"▁reject":1702,"ote":1703,"▁forget":1704,"▁shop":1705,"▁plot":1706,"izz":1707,"▁imm":1708,"▁order":1709,"▁actually":1710,"▁small":1711,"▁color":1712,"gery":1713,"▁glass":1714,"▁pleasure":1715,"head":1716,"▁behind":1717,"▁problems":1718,"▁describe":1719,"dom":1720,"ple":1721,"yp":1722,"▁hol":1723,"▁puss":1724,"▁third":1725,"▁die":1726,"▁gold":1727,"ald":1728,"oming":1729,"otic":1730,"▁karen":1731,"raph":1732,"▁left":1733,"▁plant":1734,"▁raise":1735,"▁john":1736,"ether":1737,"ropri":1738,"▁middle":1739,"▁discuss":1740,"▁target":1741,"▁question":1742,"▁pussy":1743,"gu":1744,"gle":1745,"xual":1746,"▁taking":1747,"▁hallow":1748,"▁tor":1749,"▁austr":1750,"oud":1751,"▁same":1752,"▁bas":1753,"▁burn":1754,"▁cry":1755,"▁ped":1756,"▁mor":1757,"▁mis":1758,"▁mich":1759,"▁magic":1760,"▁spend":1761,"▁less":1762,"▁prove":1763,"▁mod":1764,"▁discre":1765,"ized":1766,"▁cost":1767,"▁breath":1768,"ude":1769,"ucks":1770,"▁surgery":1771,"▁attention":1772,"▁funeral":1773,"▁watching":1774,"▁signs":1775,"▁character":1776,"▁halloween":1777,"▁discreet":1778,"ike":1779,"mate":1780,"n’t":1781,"▁ho":1782,"▁send":1783,"▁sound":1784,"▁were":1785,"ense":1786,"▁meth":1787,"icked":1788,"▁begin":1789,"▁shame":1790,"▁jack":1791,"▁rom":1792,"▁race":1793,"▁becoming":1794,"▁alone":1795,"akes":1796,"▁point":1797,"▁cover":1798,"ortion":1799,"▁assass":1800,"▁creep":1801,"▁complet":1802,"view":1803,"▁masturbating":1804,"▁invis":1805,"▁fingers":1806,"duct":1807,"▁safely":1808,"▁coworkers":1809,"▁market":1810,"▁pregnant":1811,"▁future":1812,"her":1813,"▁9":1814,"ination":1815,"▁cy":1816,"▁cum":1817,"▁threat":1818,"▁div":1819,"▁gun":1820,"▁gender":1821,"arch":1822,"▁law":1823,"ential":1824,"▁had":1825,"ason":1826,"▁spir":1827,"▁exc":1828,"▁comfort":1829,"▁blue":1830,"▁unw":1831,"▁pos":1832,"▁flirt":1833,"▁meat":1834,"▁measure":1835,"▁interest":1836,"▁letter":1837,"▁inside":1838,"▁wearing":1839,"▁infl":1840,"▁enemies":1841,"▁battle":1842,"▁ensure":1843,"▁discreetly":1844,"cise":1845,"▁tit":1846,"▁hate":1847,"▁som":1848,"reci":1849,"▁fit":1850,"▁fly":1851,"▁crim":1852,"▁there":1853,"▁did":1854,"▁inform":1855,"icious":1856,"▁jer":1857,"▁vag":1858,"asm":1859,"▁spy":1860,"▁place":1861,"ives":1862,"▁contest":1863,"▁evil":1864,"▁wants":1865,"▁masturbation":1866,"ances":1867,"velop":1868,"▁american":1869,"▁distract":1870,"▁milk":1871,"of":1872,"▁term":1873,"▁hid":1874,"ouble":1875,"▁sand":1876,"▁fist":1877,"▁cam":1878,"▁pack":1879,"ital":1880,"ana":1881,"arant":1882,"▁init":1883,"▁bear":1884,"▁ner":1885,"▁may":1886,"verse":1887,"▁level":1888,"▁office":1889,"▁feet":1890,"▁overcome":1891,"ograph":1892,"▁appreci":1893,"fully":1894,"▁others":1895,"▁demons":1896,"▁blowjob":1897,"ibal":1898,"▁terror":1899,"▁invisible":1900,"hood":1901,"my":1902,"ze":1903,"▁aud":1904,"▁side":1905,"▁song":1906,"▁wind":1907,"ately":1908,"acy":1909,"▁fort":1910,"▁deb":1911,"▁develop":1912,"▁tech":1913,"▁lover":1914,"▁sexually":1915,"▁clone":1916,"▁cancer":1917,"ething":1918,"▁killer":1919,"▁ways":1920,"▁successfully":1921,"▁imagine":1922,"▁student":1923,"▁support":1924,"▁healthy":1925,"▁effectively":1926,"▁something":1927,"kin":1928,"▁ir":1929,"▁farm":1930,"▁cand":1931,"▁cross":1932,"▁pir":1933,"▁powers":1934,"▁wild":1935,"▁thank":1936,"▁gain":1937,"ets":1938,"▁las":1939,"acc":1940,"▁making":1941,"▁doing":1942,"ama":1943,"▁vo":1944,"ieve":1945,"▁arrest":1946,"▁clos":1947,"▁weed":1948,"▁plane":1949,"▁adult":1950,"▁facebook":1951,"▁51":1952,"▁christian":1953,"▁don’t":1954,"▁satan":1955,"▁coworker":1956,"▁regret":1957,"▁argument":1958,"▁cannibal":1959,"work":1960,"xic":1961,"▁table":1962,"▁won":1963,"▁three":1964,"▁giving":1965,"arge":1966,"▁egg":1967,"ellow":1968,"▁jap":1969,"thing":1970,"aster":1971,"aked":1972,"ivate":1973,"▁appro":1974,"▁fucking":1975,"▁orgasm":1976,"▁visit":1977,"▁robot":1978,"▁satis":1979,"▁film":1980,"fl":1981,"hole":1982,"iel":1983,"▁ill":1984,"▁ide":1985,"▁very":1986,"▁half":1987,"▁top":1988,"▁age":1989,"inal":1990,"▁sil":1991,"▁bor":1992,"▁camp":1993,"att":1994,"ature":1995,"▁mr":1996,"▁mic":1997,"▁lim":1998,"▁nice":1999,"roke":2000,"▁once":2001,"ently":2002,"▁share":2003,"▁jud":2004,"▁asian":2005,"▁rich":2006,"ution":2007,"▁susp":2008,"anted":2009,"▁team":2010,"pline":2011,"▁sexy":2012,"ager":2013,"▁kidn":2014,"ause":2015,"ours":2016,"▁contact":2017,"▁russ":2018,"ancy":2019,"▁punish":2020,"▁possess":2021,"▁disappoint":2022,"▁different":2023,"▁roleplay":2024,"▁japan":2025,"cra":2026,"lord":2027,"mer":2028,"sing":2029,"▁est":2030,"▁tim":2031,"▁young":2032,"▁bot":2033,"▁cust":2034,"▁mult":2035,"rix":2036,"▁reven":2037,"▁eart":2038,"▁elect":2039,"▁stick":2040,"idence":2041,"ural":2042,"vern":2043,"▁ju":2044,"▁jes":2045,"▁abortion":2046,"▁disci":2047,"▁pray":2048,"▁italian":2049,"que":2050,"▁aff":2051,"▁drown":2052,"▁weight":2053,"▁soci":2054,"▁interview":2055,"▁downvot":2056,"ension":2057,"ertain":2058,"▁month":2059,"▁please":2060,"▁trying":2061,"▁grandma":2062,"▁floor":2063,"▁nipples":2064,"▁marriage":2065,"▁wedding":2066,"▁divorce":2067,"▁initiate":2068,"▁revenge":2069,"▁discipline":2070,"dge":2071,"ging":2072,"ged":2073,"gress":2074,"hold":2075,"land":2076,"lder":2077,"▁id":2078,"iny":2079,"inary":2080,"▁band":2081,"▁cur":2082,"▁cour":2083,"▁cup":2084,"▁wet":2085,"ato":2086,"▁dent":2087,"ito":2088,"vember":2089,"▁ele":2090,"▁stra":2091,"▁made":2092,"▁living":2093,"▁spell":2094,"▁spouse":2095,"▁lead":2096,"▁block":2097,"▁govern":2098,"▁scene":2099,"▁november":2100,"aving":2101,"▁bring":2102,"▁diet":2103,"▁drinking":2104,"▁paint":2105,"▁meeting":2106,"▁safe":2107,"▁patient":2108,"▁animal":2109,"▁doesnt":2110,"▁collection":2111,"▁easy":2112,"▁thoughts":2113,"▁experience":2114,"▁emoj":2115,"▁threaten":2116,"ov":2117,"rat":2118,"rot":2119,"ying":2120,"▁hun":2121,"▁pull":2122,"▁ther":2123,"▁dark":2124,"▁math":2125,"▁naked":2126,"▁reach":2127,"▁stuff":2128,"▁stroke":2129,"ury":2130,"▁kicked":2131,"▁short":2132,"▁deg":2133,"▁lie":2134,"▁because":2135,"▁offer":2136,"▁coff":2137,"▁enough":2138,"▁talking":2139,"▁staring":2140,"▁profile":2141,"▁profession":2142,"▁single":2143,"▁syn":2144,"▁terri":2145,"▁secretly":2146,"▁smoke":2147,"ennial":2148,"ways":2149,"▁millennial":2150,"▁unwanted":2151,"▁fortn":2152,"▁earth":2153,"got":2154,"ky":2155,"ker":2156,"ners":2157,"su":2158,"▁6":2159,"▁7":2160,"▁found":2161,"▁cri":2162,"ony":2163,"enact":2164,"▁ge":2165,"▁must":2166,"eter":2167,"▁rece":2168,"▁reenact":2169,"▁earn":2170,"▁abs":2171,"▁project":2172,"▁text":2173,"inea":2174,"▁uncom":2175,"▁poison":2176,"▁roll":2177,"iality":2178,"▁smile":2179,"▁overlord":2180,"▁guinea":2181,"▁phys":2182,"▁slow":2183,"▁ghosts":2184,"▁drag":2185,"▁arms":2186,"▁early":2187,"▁organ":2188,"duc":2189,"▁green":2190,"▁shooting":2191,"▁fresh":2192,"▁caught":2193,"▁facial":2194,"▁pedoph":2195,"▁arrested":2196,"▁government":2197,"▁fortnite":2198,"▁uncomfort":2199,"ein":2200,"fish":2201,"side":2202,"to":2203,"tly":2204,"▁vers":2205,"▁foll":2206,"▁capt":2207,"▁pool":2208,"▁dim":2209,"▁dating":2210,"itute":2211,"▁gym":2212,"▁non":2213,"▁naz":2214,"▁stre":2215,"ific":2216,"olate":2217,"▁jump":2218,"▁asleep":2219,"▁ring":2220,"▁uncle":2221,"▁childs":2222,"ache":2223,"▁poor":2224,"▁playing":2225,"▁famous":2226,"cover":2227,"anned":2228,"▁upvote":2229,"wards":2230,"▁america":2231,"▁politely":2232,"▁animals":2233,"▁priv":2234,"▁games":2235,"▁pupp":2236,"▁lady":2237,"▁vagina":2238,"▁appreciate":2239,"▁pirate":2240,"▁approach":2241,"▁satisfy":2242,"▁jesus":2243,"▁therap":2244,"ault":2245,"bar":2246,"boy":2247,"ces":2248,"kward":2249,"port":2250,"ycle":2251,"▁bank":2252,"▁cap":2253,"▁waste":2254,"▁thing":2255,"ith":2256,"▁gift":2257,"▁morn":2258,"omer":2259,"▁low":2260,"▁lab":2261,"▁lord":2262,"els":2263,"▁norm":2264,"▁ston":2265,"ifu":2266,"▁shake":2267,"▁door":2268,"▁lemon":2269,"▁exer":2270,"▁notice":2271,"▁always":2272,"ploy":2273,"▁poke":2274,"▁cloth":2275,"▁rad":2276,"▁rape":2277,"▁scre":2278,"▁boys":2279,"▁heroin":2280,"anger":2281,"▁quarant":2282,"▁cold":2283,"▁embr":2284,"▁awkward":2285,"▁porno":2286,"annel":2287,"ttps":2288,"▁techn":2289,"▁coffee":2290,"▁cripp":2291,"▁embrace":2292,"aut":2293,"kk":2294,"ox":2295,"▁tick":2296,"▁fix":2297,"▁bri":2298,"▁bond":2299,"▁cant":2300,"▁cake":2301,"▁pill":2302,"▁pie":2303,"▁warm":2304,"ater":2305,"▁dry":2306,"orate":2307,"▁gri":2308,"▁gard":2309,"ising":2310,"▁opp":2311,"stem":2312,"▁ever":2313,"▁stare":2314,"▁channel":2315,"tern":2316,"▁season":2317,"▁likes":2318,"▁condom":2319,"pped":2320,"▁abuse":2321,"▁somebody":2322,"▁moder":2323,"▁disgu":2324,"ortal":2325,"▁true":2326,"ously":2327,"ired":2328,"▁imperson":2329,"▁pets":2330,"▁crack":2331,"▁confuse":2332,"▁guys":2333,"ikihowcom":2334,"▁calc":2335,"▁calm":2336,"▁pregnancy":2337,"▁country":2338,"▁bully":2339,"▁mentally":2340,"▁jerk":2341,"▁uncomfortable":2342,"aur":2343,"born":2344,"go":2345,"gar":2346,"▁https":2347,"▁tom":2348,"▁toy":2349,"▁tooth":2350,"▁astr":2351,"red":2352,"reddit":2353,"▁ban":2354,"▁cent":2355,"▁page":2356,"▁pizz":2357,"▁well":2358,"▁den":2359,"▁double":2360,"ision":2361,"omy":2362,"etic":2363,"▁oper":2364,"icle":2365,"▁lapt":2366,"▁witness":2367,"▁rele":2368,"ility":2369,"▁stat":2370,"▁ug":2371,"ider":2372,"▁kit":2373,"rass":2374,"opt":2375,"▁deep":2376,"andom":2377,"▁vie":2378,"▁rub":2379,"uth":2380,"▁prep":2381,"ests":2382,"▁tea":2383,"▁alab":2384,"▁compl":2385,"▁enc":2386,"▁flash":2387,"▁employ":2388,"▁adopt":2389,"ments":2390,"▁remind":2391,"▁apple":2392,"▁apply":2393,"▁personal":2394,"enses":2395,"▁addict":2396,"▁amp":2397,"▁underw":2398,"▁subtly":2399,"▁final":2400,"▁system":2401,"▁entertain":2402,"▁autistic":2403,"▁breasts":2404,"▁popular":2405,"▁angry":2406,"▁photo":2407,"▁circ":2408,"▁micha":2409,"▁morning":2410,"▁laptop":2411,"▁view":2412,"0s":2413,"ij":2414,"lock":2415,"ping":2416,"ses":2417,"▁hang":2418,"▁today":2419,"▁fri":2420,"▁father":2421,"▁both":2422,"▁done":2423,"▁duck":2424,"ett":2425,"▁now":2426,"▁nar":2427,"▁kick":2428,"rage":2429,"▁dece":2430,"▁semen":2431,"under":2432,"antly":2433,"ists":2434,"ational":2435,"▁prop":2436,"▁note":2437,"▁worth":2438,"▁offic":2439,"ards":2440,"agram":2441,"ipe":2442,"▁oral":2443,"▁used":2444,"▁mean":2445,"▁cheap":2446,"▁emotion":2447,"▁embar":2448,"ounter":2449,"▁asshole":2450,"▁canad":2451,"▁switch":2452,"▁19":2453,"▁evidence":2454,"▁identity":2455,"ocal":2456,"▁household":2457,"▁serial":2458,"▁farts":2459,"▁locate":2460,"▁instagram":2461,"▁imaginary":2462,"▁victims":2463,"▁parrot":2464,"▁virginity":2465,"▁sweet":2466,"▁antiv":2467,"▁flex":2468,"▁quickly":2469,"▁telepathically":2470,"▁valent":2471,"▁spirit":2472,"▁garden":2473,"▁pizza":2474,"▁michael":2475,"gr":2476,"ture":2477,"uation":2478,"inc":2479,"▁sent":2480,"erb":2481,"▁ful":2482,"▁four":2483,"▁banned":2484,"▁drop":2485,"▁mc":2486,"▁mess":2487,"ety":2488,"ars":2489,"aring":2490,"▁beach":2491,"▁replace":2492,"▁state":2493,"▁whether":2494,"roat":2495,"roph":2496,"▁mas":2497,"▁maint":2498,"▁king":2499,"igr":2500,"▁shes":2501,"▁shark":2502,"▁via":2503,"▁random":2504,"utes":2505,"▁lev":2506,"▁lost":2507,"▁word":2508,"▁ride":2509,"▁joke":2510,"▁smug":2511,"▁cheating":2512,"▁cheese":2513,"▁cream":2514,"▁snack":2515,"▁diar":2516,"▁compet":2517,"▁finish":2518,"▁legs":2519,"▁liter":2520,"▁hitler":2521,"▁zomb":2522,"▁roommate":2523,"▁harass":2524,"▁medical":2525,"▁minor":2526,"▁defend":2527,"▁smoking":2528,"▁boobs":2529,"▁salad":2530,"▁pictures":2531,"▁2019":2532,"▁shoes":2533,"▁choke":2534,"▁casually":2535,"▁audition":2536,"▁russian":2537,"▁possessed":2538,"▁syndr":2539,"▁terrible":2540,"▁pokemon":2541,"▁ugly":2542,"▁embarrass":2543,"dies":2544,"eat":2545,"ken":2546,"lo":2547,"light":2548,"sw":2549,"ule":2550,"▁8":2551,"▁ver":2552,"▁tv":2553,"▁tre":2554,"▁hell":2555,"▁tong":2556,"▁ach":2557,"▁sick":2558,"▁thumb":2559,"▁might":2560,"isis":2561,"▁ostr":2562,"▁lang":2563,"▁nud":2564,"rif":2565,"▁ul":2566,"irm":2567,"iff":2568,"▁shirt":2569,"▁dem":2570,"▁spread":2571,"▁conj":2572,"▁outside":2573,"▁notic":2574,"▁mock":2575,"▁coming":2576,"▁afric":2577,"▁clock":2578,"▁many":2579,"▁looks":2580,"▁activate":2581,"▁perio":2582,"aves":2583,"▁working":2584,"▁interrog":2585,"▁appropri":2586,"▁10":2587,"ails":2588,"▁loved":2589,"▁address":2590,"▁special":2591,"▁detect":2592,"▁subreddit":2593,"▁memor":2594,"▁coron":2595,"▁stealing":2596,"▁sleeping":2597,"▁communist":2598,"▁transform":2599,"▁jew":2600,"▁entire":2601,"▁bedroom":2602,"▁urine":2603,"▁expect":2604,"▁apolog":2605,"▁spider":2606,"▁bowl":2607,"reme":2608,"▁immigr":2609,"▁torture":2610,"▁japanese":2611,"craft":2612,"▁court":2613,"▁quarantine":2614,"▁crippling":2615,"▁antivax":2616,"▁maintain":2617,"▁syndrome":2618,"▁langu":2619,"can":2620,"ec":2621,"hip":2622,"iot":2623,"kines":2624,"mm":2625,"nect":2626,"ring":2627,"wich":2628,"zy":2629,"▁‘":2630,"▁our":2631,"▁hook":2632,"▁hole":2633,"rel":2634,"▁fa":2635,"▁full":2636,"▁bal":2637,"▁cell":2638,"▁wood":2639,"▁goose":2640,"▁mut":2641,"any":2642,"▁la":2643,"▁lif":2644,"▁line":2645,"elly":2646,"▁nu":2647,"▁rev":2648,"ils":2649,"roll":2650,"▁gets":2651,"igare":2652,"ames":2653,"olve":2654,"▁jail":2655,"▁search":2656,"antic":2657,"▁sperm":2658,"▁exor":2659,"umber":2660,"▁intim":2661,"▁loss":2662,"▁losing":2663,"▁alph":2664,"▁mods":2665,"▁someone’s":2666,"▁code":2667,"▁web":2668,"inky":2669,"▁news":2670,"▁rapper":2671,"▁track":2672,"▁travel":2673,"▁workplace":2674,"▁brush":2675,"▁assault":2676,"▁cred":2677,"▁appear":2678,"▁swallow":2679,"ashion":2680,"rench":2681,"▁reading":2682,"▁relig":2683,"▁bigger":2684,"▁serve":2685,"▁monkey":2686,"▁anyone":2687,"▁report":2688,"▁erotic":2689,"▁orgy":2690,"▁driving":2691,"▁donald":2692,"▁potato":2693,"▁edition":2694,"▁wait":2695,"▁waifu":2696,"▁metal":2697,"▁prostate":2698,"▁prostitute":2699,"▁circle":2700,"▁turtle":2701,"▁complete":2702,"▁crime":2703,"▁hiding":2704,"▁professional":2705,"▁dragon":2706,"▁pedophile":2707,"▁nazi":2708,"▁clothes":2709,"▁astral":2710,"▁alabama":2711,"▁zombie":2712,"▁ult":2713,"kinesis":2714,"bing":2715,"hing":2716,"mp":2717,"made":2718,"sf":2719,"▁taste":2720,"▁tiny":2721,"▁sad":2722,"▁frog":2723,"▁fellow":2724,"▁fashion":2725,"▁bribe":2726,"▁cigare":2727,"▁warn":2728,"▁wolf":2729,"▁mot":2730,"▁mouse":2731,"arian":2732,"▁obs":2733,"icy":2734,"▁lower":2735,"▁lunch":2736,"▁reduce":2737,"▁educ":2738,"▁chair":2739,"▁china":2740,"▁fru":2741,"ung":2742,"▁rat":2743,"▁conc":2744,"pping":2745,"▁isnt":2746,"▁abus":2747,"▁product":2748,"allen":2749,"▁molest":2750,"▁uns":2751,"agn":2752,"ages":2753,"▁traff":2754,"▁brit":2755,"ounce":2756,"ption":2757,"▁days":2758,"▁funny":2759,"▁record":2760,"▁doctors":2761,"▁subm":2762,"▁grade":2763,"▁racial":2764,"▁serv":2765,"▁2020":2766,"▁transition":2767,"▁veget":2768,"▁depressed":2769,"▁needs":2770,"▁english":2771,"▁massive":2772,"▁return":2773,"▁missing":2774,"▁australian":2775,"▁sandwich":2776,"▁thanks":2777,"▁laser":2778,"ield":2779,"▁judge":2780,"▁degree":2781,"▁version":2782,"▁follow":2783,"▁dimension":2784,"▁street":2785,"▁exercise":2786,"▁techni":2787,"▁disguise":2788,"▁period":2789,"gl":2790,"giving":2791,"law":2792,"ray":2793,"sd":2794,"vest":2795,"▁hur":2796,"▁hint":2797,"▁tow":2798,"inj":2799,"▁french":2800,"▁bit":2801,"▁bang":2802,"▁pills":2803,"oner":2804,"▁wish":2805,"▁throat":2806,"▁du":2807,"▁dild":2808,"itive":2809,"▁gar":2810,"▁gro":2811,"lex":2812,"ley":2813,"alia":2814,"▁infect":2815,"▁ok":2816,"▁large":2817,"▁beer":2818,"▁recre":2819,"▁story":2820,"irus":2821,"irty":2822,"▁chines":2823,"▁challen":2824,"urance":2825,"▁vacc":2826,"▁telling":2827,"▁rh":2828,"▁sup":2829,"▁space":2830,"▁sport":2831,"iled":2832,"▁altern":2833,"▁knock":2834,"▁dish":2835,"▁proud":2836,"▁finding":2837,"▁scream":2838,"▁flat":2839,"▁meal":2840,"▁key":2841,"▁quit":2842,"ourn":2843,"▁girlfriends":2844,"▁remain":2845,"▁homemade":2846,"▁swim":2847,"▁snow":2848,"▁aggress":2849,"▁recover":2850,"▁crisis":2851,"▁diy":2852,"▁butter":2853,"▁confirm":2854,"box":2855,"▁feelings":2856,"▁couch":2857,"▁cosby":2858,"▁says":2859,"▁telekinesis":2860,"▁paying":2861,"▁fantasy":2862,"▁fantasies":2863,"▁superior":2864,"▁sym":2865,"▁soup":2866,"▁object":2867,"▁minutes":2868,"▁button":2869,"▁teenage":2870,"oined":2871,"▁bullied":2872,"▁epst":2873,"aaaaaaaa":2874,"▁strangers":2875,"ency":2876,"▁existence":2877,"▁weekend":2878,"▁costume":2879,"▁terms":2880,"ography":2881,"▁terrorist":2882,"▁straight":2883,"▁receive":2884,"▁normal":2885,"▁diarr":2886,"▁tongue":2887,"▁language":2888,"▁cigarett":2889,"▁thanksgiving":2890,"▁chinese":2891,"11":2892,"bers":2893,"ium":2894,"pect":2895,"pret":2896,"ron":2897,"sc":2898,"yard":2899,"▁hes":2900,"▁hist":2901,"▁todd":2902,"ourage":2903,"▁sac":2904,"▁bell":2905,"▁bag":2906,"▁bomb":2907,"▁cart":2908,"▁corn":2909,"▁cash":2910,"▁wal":2911,"eng":2912,"itiz":2913,"▁mer":2914,"arate":2915,"▁beast":2916,"▁beaut":2917,"▁stom":2918,"▁whe":2919,"eding":2920,"urf":2921,"▁shave":2922,"▁rp":2923,"▁lip":2924,"▁pred":2925,"aboo":2926,"▁boot":2927,"▁disl":2928,"▁discover":2929,"astic":2930,"izing":2931,"▁worst":2932,"▁arr":2933,"ips":2934,"▁manage":2935,"▁manager":2936,"▁jokes":2937,"▁sched":2938,"irect":2939,"▁smurf":2940,"▁trap":2941,"▁trash":2942,"▁acid":2943,"▁quiet":2944,"▁content":2945,"▁babys":2946,"▁budd":2947,"▁amaz":2948,"▁grab":2949,"apping":2950,"▁corp":2951,"▁monster":2952,"▁insurance":2953,"▁birds":2954,"coming":2955,"▁jeff":2956,"▁daddy":2957,"▁advice":2958,"▁squir":2959,"▁basement":2960,"▁stripper":2961,"▁viol":2962,"▁accidentally":2963,"ypse":2964,"▁australia":2965,"▁morse":2966,"▁creepy":2967,"▁voice":2968,"▁wonder":2969,"▁juice":2970,"▁dentist":2971,"▁emoji":2972,"▁piece":2973,"ocalypse":2974,"▁ostrich":2975,"▁conjoined":2976,"▁recreate":2977,"back":2978,"bucks":2979,"fe":2980,"ges":2981,"just":2982,"ket":2983,"lph":2984,"ma":2985,"off":2986,"tain":2987,"▁il":2988,"▁tie":2989,"▁tatt":2990,"▁tot":2991,"erg":2992,"ery":2993,"▁far":2994,"▁ca":2995,"▁wel":2996,"▁would":2997,"▁danger":2998,"▁gone":2999,"▁mug":3000,"▁late":3001,"▁land":3002,"▁lsd":3003,"▁nsf":3004,"▁ninj":3005,"▁answ":3006,"▁requ":3007,"▁stuck":3008,"▁stere":3009,"▁stup":3010,"▁states":3011,"iday":3012,"▁chur":3013,"▁choc":3014,"urally":3015,"▁dolph":3016,"olution":3017,"▁spank":3018,"▁convert":3019,"▁friend’s":3020,"▁bodies":3021,"▁lob":3022,"plant":3023,"▁moon":3024,"▁comb":3025,"▁blame":3026,"▁unt":3027,"▁united":3028,"▁he’s":3029,"▁image":3030,"others":3031,"▁mexic":3032,"▁guests":3033,"avirus":3034,"ables":3035,"osexual":3036,"▁clear":3037,"▁recycle":3038,"▁memes":3039,"▁member":3040,"▁seeing":3041,"▁shitty":3042,"ancing":3043,"▁she’s":3044,"appropri":3045,"iously":3046,"▁signific":3047,"▁calls":3048,"▁repost":3049,"▁longer":3050,"▁ears":3051,"▁summer":3052,"▁virus":3053,"hea":3054,"▁harvest":3055,"▁selling":3056,"▁autism":3057,"▁forever":3058,"▁crazy":3059,"▁defeat":3060,"▁matrix":3061,"▁enemy":3062,"ennis":3063,"▁restaur":3064,"▁sweat":3065,"▁easily":3066,"▁engage":3067,"▁massage":3068,"▁cause":3069,"▁deli":3070,"▁telepathy":3071,"▁2018":3072,"▁spiderman":3073,"▁seconds":3074,"▁holiday":3075,"▁basic":3076,"▁model":3077,"▁romantic":3078,"▁position":3079,"▁candy":3080,"▁suspicious":3081,"▁times":3082,"▁afford":3083,"▁mustache":3084,"▁overlords":3085,"▁stoned":3086,"iju":3087,"▁achieve":3088,"▁credit":3089,"▁diarrhea":3090,"▁history":3091,"▁schedule":3092,"▁squirrel":3093,"▁illeg":3094,"▁tattoo":3095,"▁nsfw":3096,"▁stereot":3097,"▁church":3098,"▁chocolate":3099,"ai":3100,"bl":3101,"do":3102,"don":3103,"ex":3104,"jo":3105,"ks":3106,"ta":3107,"word":3108,"ype":3109,"▁tape":3110,"▁hours":3111,"▁tog":3112,"owse":3113,"▁yell":3114,"▁yog":3115,"erve":3116,"▁five":3117,"▁pan":3118,"▁wake":3119,"▁dirty":3120,"▁direct":3121,"▁gerb":3122,"▁mart":3123,"▁mach":3124,"lets":3125,"▁inappropri":3126,"▁opt":3127,"ician":3128,"▁laid":3129,"▁bee":3130,"▁net":3131,"veal":3132,"▁reb":3133,"▁reveal":3134,"illed":3135,"▁max":3136,"▁deer":3137,"▁deform":3138,"▁deaf":3139,"▁select":3140,"▁vom":3141,"▁vill":3142,"▁suit":3143,"▁sugg":3144,"▁liz":3145,"▁lips":3146,"▁conce":3147,"ably":3148,"▁bob":3149,"apers":3150,"▁nothing":3151,"▁child’s":3152,"▁words":3153,"▁offend":3154,"▁pose":3155,"▁road":3156,"parent":3157,"▁cheer":3158,"▁cheat":3159,"▁sock":3160,"▁brows":3161,"▁browse":3162,"▁advert":3163,"▁import":3164,"▁killing":3165,"▁diagn":3166,"▁seek":3167,"▁army":3168,"▁invest":3169,"▁invite":3170,"▁legally":3171,"▁30":3172,"▁instantly":3173,"▁opin":3174,"▁running":3175,"▁profit":3176,"▁drawing":3177,"▁painting":3178,"anny":3179,"▁impression":3180,"▁enter":3181,"▁standing":3182,"▁effic":3183,"▁expenses":3184,"▁evening":3185,"▁political":3186,"▁resist":3187,"ologist":3188,"▁neighborhood":3189,"▁reflect":3190,"▁shoe":3191,"▁stranger":3192,"▁hostage":3193,"▁admit":3194,"▁assassinate":3195,"▁closet":3196,"▁idiot":3197,"▁lemonade":3198,"▁calculate":3199,"▁release":3200,"▁circum":3201,"▁officer":3202,"▁competition":3203,"▁coronavirus":3204,"▁sacrif":3205,"▁ninja":3206,"▁stupid":3207,"▁significant":3208,"▁suggest":3209,"aff":3210,"cend":3211,"den":3212,"des":3213,"dro":3214,"ees":3215,"ead":3216,"girl":3217,"me":3218,"mw":3219,"ode":3220,"so":3221,"••":3222,"▁ess":3223,"▁tac":3224,"▁hack":3225,"▁si":3226,"▁san":3227,"▁sar":3228,"▁sav":3229,"rey":3230,"▁fiction":3231,"▁ble":3232,"▁bun":3233,"▁bub":3234,"▁bds":3235,"▁cous":3236,"▁case":3237,"▁cute":3238,"▁citiz":3239,"▁pi":3240,"▁py":3241,"▁pic":3242,"▁pant":3243,"▁pump":3244,"▁dam":3245,"▁dys":3246,"iter":3247,"orth":3248,"▁gas":3249,"▁german":3250,"▁mine":3251,"ises":3252,"oms":3253,"▁inh":3254,"▁lure":3255,"▁anx":3256,"iling":3257,"▁stret":3258,"▁whil":3259,"▁whos":3260,"ids":3261,"▁chem":3262,"imp":3263,"▁shut":3264,"▁jaw":3265,"▁sever":3266,"▁suc":3267,"▁spo":3268,"▁connect":3269,"▁press":3270,"▁leaving":3271,"▁exec":3272,"▁ups":3273,"ement":3274,"▁pron":3275,"▁knowing":3276,"▁imitate":3277,"▁score":3278,"▁ground":3279,"▁partic":3280,"▁partners":3281,"spot":3282,"▁brown":3283,"▁planet":3284,"▁backyard":3285,"osis":3286,"▁asks":3287,"▁whole":3288,"▁18":3289,"▁1st":3290,"▁slave":3291,"▁humans":3292,"▁neighbour":3293,"ocate":3294,"▁posts":3295,"▁pretty":3296,"▁theyre":3297,"▁anything":3298,"▁insert":3299,"clear":3300,"▁steps":3301,"▁vision":3302,"▁potential":3303,"▁football":3304,"▁robber":3305,"▁study":3306,"▁pige":3307,"▁obtain":3308,"▁neckbe":3309,"▁broken":3310,"▁design":3311,"▁dreams":3312,"▁advances":3313,"▁hyp":3314,"▁situation":3315,"▁fanf":3316,"▁flesh":3317,"▁delicious":3318,"▁belly":3319,"▁nipple":3320,"▁respects":3321,"▁natural":3322,"iety":3323,"▁universe":3324,"▁werew":3325,"▁completely":3326,"▁kidnap":3327,"▁bottle":3328,"▁society":3329,"▁modern":3330,"▁impersonate":3331,"▁december":3332,"▁embarrassing":3333,"▁noticing":3334,"▁interrogate":3335,"▁apologize":3336,"▁nuclear":3337,"▁dildo":3338,"▁objects":3339,"▁spanking":3340,"▁restaurant":3341,"ijuana":3342,"▁together":3343,"▁sacrifice":3344,"▁bdsm":3345,"▁stretch":3346,"aul":3347,"bi":3348,"gger":3349,"hom":3350,"hov":3351,"iens":3352,"ké":3353,"lim":3354,"ms":3355,"mates":3356,"rate":3357,"sel":3358,"wart":3359,"wash":3360,"ye":3361,"▁tax":3362,"▁tits":3363,"▁tennis":3364,"▁hall":3365,"▁hip":3366,"▁hire":3367,"▁hunt":3368,"oulder":3369,"▁sant":3370,"▁sight":3371,"▁furn":3372,"▁fav":3373,"▁furb":3374,"▁cro":3375,"▁pics":3376,"▁prim":3377,"onge":3378,"atives":3379,"itter":3380,"▁goo":3381,"inger":3382,"alous":3383,"ised":3384,"▁insp":3385,"▁older":3386,"▁lon":3387,"acial":3388,"▁nick":3389,"▁anus":3390,"ilt":3391,"ilia":3392,"▁stone":3393,"edi":3394,"▁chin":3395,"▁killed":3396,"▁shoulder":3397,"ceed":3398,"ads":3399,"und":3400,"▁rout":3401,"▁libr":3402,"▁sponge":3403,"ulation":3404,"▁plastic":3405,"abet":3406,"▁cat’s":3407,"▁alarm":3408,"▁alleg":3409,"empt":3410,"▁blend":3411,"▁discret":3412,"▁unc":3413,"dden":3414,"▁pock":3415,"▁weap":3416,"▁raid":3417,"▁scam":3418,"▁schem":3419,"▁smart":3420,"▁smash":3421,"▁flu":3422,"▁hero":3423,"▁quality":3424,"▁writing":3425,"▁turning":3426,"▁reality":3427,"▁sniff":3428,"▁12":3429,"▁explore":3430,"ensive":3431,"▁boyfriends":3432,"▁diaper":3433,"▁relax":3434,"▁respons":3435,"▁bestiality":3436,"▁armp":3437,"▁access":3438,"▁themed":3439,"▁protest":3440,"▁instru":3441,"▁hitman":3442,"▁cooking":3443,"▁happen":3444,"▁bathe":3445,"▁jehov":3446,"▁jealous":3447,"▁harry":3448,"▁elim":3449,"▁consent":3450,"▁students":3451,"▁freak":3452,"▁grandmother":3453,"▁apocalypse":3454,"▁psychic":3455,"▁stalker":3456,"▁stalking":3457,"▁married":3458,"ences":3459,"▁naturally":3460,"▁alcoholic":3461,"▁shopping":3462,"▁glasses":3463,"▁lesson":3464,"▁ideas":3465,"▁boring":3466,"▁slowly":3467,"▁organize":3468,"▁radio":3469,"▁pillow":3470,"▁deny":3471,"▁addicted":3472,"▁underwear":3473,"▁canadian":3474,"▁literally":3475,"▁concert":3476,"▁british":3477,"▁stomach":3478,"▁illegal":3479,"▁yoga":3480,"▁machine":3481,"▁conceal":3482,"▁whilst":3483,"▁werewolf":3484,"kémon":3485,"▁santa":3486,"aim":3487,"bul":3488,"cut":3489,"dition":3490,"ease":3491,"fast":3492,"ga":3493,"jac":3494,"life":3495,"mem":3496,"na":3497,"pa":3498,"pos":3499,"te":3500,"ton":3501,"uge":3502,"wh":3503,"yl":3504,"zz":3505,"▁ted":3506,"▁tast":3507,"▁hon":3508,"▁towards":3509,"▁sink":3510,"▁sens":3511,"▁session":3512,"era":3513,"▁fu":3514,"▁fel":3515,"▁buck":3516,"▁boner":3517,"▁coo":3518,"▁portal":3519,"▁wrest":3520,"▁thot":3521,"▁dig":3522,"▁dut":3523,"▁dying":3524,"iture":3525,"orid":3526,"▁gum":3527,"▁goth":3528,"▁mel":3529,"▁mist":3530,"star":3531,"ries":3532,"▁eu":3533,"▁equ":3534,"▁euth":3535,"▁ejac":3536,"▁stress":3537,"idate":3538,"▁mail":3539,"▁chill":3540,"iment":3541,"rap":3542,"rain":3543,"▁ate":3544,"verage":3545,"ands":3546,"▁van":3547,"▁vol":3548,"▁negot":3549,"▁spa":3550,"▁cathol":3551,"aping":3552,"▁aliens":3553,"▁knife":3554,"▁peace":3555,"▁heav":3556,"▁pokémon":3557,"▁enl":3558,"▁env":3559,"▁arent":3560,"▁client":3561,"▁friendship":3562,"▁handjob":3563,"▁mans":3564,"▁scrat":3565,"▁started":3566,"▁schiz":3567,"▁actual":3568,"▁flight":3569,"▁traum":3570,"▁trade":3571,"▁soap":3572,"▁interpret":3573,"▁realise":3574,"▁homeless":3575,"▁asking":3576,"▁mario":3577,"▁100":3578,"▁bukk":3579,"▁crit":3580,"▁amount":3581,"▁carry":3582,"▁members":3583,"▁grass":3584,"▁convention":3585,"apped":3586,"▁everything":3587,"▁themsel":3588,"▁zone":3589,"▁elder":3590,"▁artist":3591,"strate":3592,"▁incon":3593,"▁urge":3594,"ophren":3595,"▁apart":3596,"▁refuse":3597,"▁solve":3598,"▁movement":3599,"▁mental":3600,"▁univers":3601,"▁basket":3602,"▁breathe":3603,"▁jackson":3604,"▁911":3605,"▁didnt":3606,"▁debt":3607,"▁voices":3608,"▁eggs":3609,"▁silence":3610,"▁multip":3611,"▁downvote":3612,"▁therapist":3613,"▁screen":3614,"▁httpsww":3615,"▁encourage":3616,"▁valentines":3617,"▁revolution":3618,"▁religion":3619,"▁ultimate":3620,"▁fruit":3621,"▁challenge":3622,"▁dolphin":3623,"▁taco":3624,"▁citizen":3625,"▁minecraft":3626,"▁furby":3627,"▁discretely":3628,"▁jehovah":3629,"orida":3630,"▁euthan":3631,"▁scratch":3632,"▁themselves":3633,"bri":3634,"face":3635,"hub":3636,"iest":3637,"ially":3638,"ka":3639,"mart":3640,"nes":3641,"nger":3642,"rito":3643,"ues":3644,"▁ts":3645,"▁tour":3646,"inated":3647,"▁sense":3648,"ern":3649,"res":3650,"▁fro":3651,"▁counter":3652,"▁pin":3653,"▁pes":3654,"atrix":3655,"▁da":3656,"▁dong":3657,"itation":3658,"oring":3659,"▁mac":3660,"▁mum":3661,"▁inn":3662,"▁lion":3663,"▁loo":3664,"▁lick":3665,"acu":3666,"▁nur":3667,"stick":3668,"illy":3669,"▁stock":3670,"▁makes":3671,"▁ones":3672,"child":3673,"▁shap":3674,"anda":3675,"▁tells":3676,"▁sugar":3677,"▁spit":3678,"▁const":3679,"estyle":3680,"▁plants":3681,"▁prov":3682,"ablish":3683,"used":3684,"action":3685,"▁dog’s":3686,"▁lock":3687,"▁alive":3688,"empl":3689,"▁mob":3690,"▁mode":3691,"the":3692,"▁heat":3693,"▁arts":3694,"▁gods":3695,"▁enh":3696,"▁roast":3697,"ague":3698,"▁weak":3699,"ipate":3700,"▁sciss":3701,"▁dealer":3702,"bert":3703,"▁guide":3704,"▁attempt":3705,"▁emerg":3706,"▁owner":3707,"▁contempl":3708,"▁homework":3709,"ission":3710,"▁snap":3711,"▁pornhub":3712,"▁breaking":3713,"▁breakup":3714,"▁breakfast":3715,"▁diary":3716,"▁decline":3717,"▁confident":3718,"▁speed":3719,"▁gradu":3720,"▁starbucks":3721,"anced":3722,"▁couple":3723,"▁demonstrate":3724,"▁eyebr":3725,"▁fighting":3726,"▁instead":3727,"▁profess":3728,"▁driver":3729,"▁dominatrix":3730,"lete":3731,"▁passive":3732,"▁potter":3733,"▁forest":3734,"▁foreplay":3735,"▁airpl":3736,"▁broke":3737,"▁match":3738,"▁behave":3739,"▁result":3740,"▁desp":3741,"▁boob":3742,"▁questions":3743,"▁attractive":3744,"▁floating":3745,"▁laughing":3746,"▁difference":3747,"▁promotion":3748,"ypes":3749,"▁interesting":3750,"▁inflight":3751,"▁fisting":3752,"▁nerd":3753,"▁cannibalism":3754,"▁idea":3755,"▁eleph":3756,"▁absol":3757,"▁puppy":3758,"▁therapy":3759,"▁abusive":3760,"▁traffic":3761,"▁service":3762,"▁vegetables":3763,"▁sports":3764,"▁epstein":3765,"▁cigarette":3766,"▁beastiality":3767,"▁wheel":3768,"▁answer":3769,"▁deliver":3770,"▁lizard":3771,"▁efficient":3772,"drohom":3773,"mwikihowcom":3774,"▁bubble":3775,"▁cousin":3776,"▁anxiety":3777,"▁succeed":3778,"▁pigeon":3779,"▁neckbeard":3780,"▁furniture":3781,"▁library":3782,"▁pocket":3783,"▁scheme":3784,"▁instruct":3785,"memes":3786,"▁catholic":3787,"▁schizophren":3788,"▁bukkake":3789,"▁elderly":3790,"▁emergency":3791,"ait":3792,"cast":3793,"dress":3794,"fit":3795,"force":3796,"gie":3797,"iation":3798,"list":3799,"ming":3800,"mes":3801,"no":3802,"nam":3803,"night":3804,"pes":3805,"post":3806,"vies":3807,"▁ing":3808,"▁irl":3809,"▁trees":3810,"▁horn":3811,"▁hug":3812,"ino":3813,"inity":3814,"▁yet":3815,"▁yes":3816,"▁sold":3817,"▁bible":3818,"▁bills":3819,"▁push":3820,"▁paul":3821,"▁wipe":3822,"ata":3823,"atch":3824,"ators":3825,"▁dw":3826,"▁dumb":3827,"itar":3828,"ites":3829,"▁gear":3830,"▁mood":3831,"▁mort":3832,"icc":3833,"icles":3834,"▁lines":3835,"▁bees":3836,"▁beard":3837,"▁national":3838,"▁number":3839,"▁reverse":3840,"▁whis":3841,"▁chad":3842,"▁chang":3843,"▁ket":3844,"▁karate":3845,"▁shr":3846,"▁habit":3847,"▁haunt":3848,"▁doc":3849,"ops":3850,"▁jim":3851,"unction":3852,"ased":3853,"▁thats":3854,"geon":3855,"ulous":3856,"▁prefer":3857,"▁isn’t":3858,"▁upcoming":3859,"▁plac":3860,"▁propose":3861,"▁teens":3862,"ability":3863,"ains":3864,"ems":3865,"▁movies":3866,"▁comed":3867,"▁disable":3868,"ief":3869,"▁worship":3870,"agon":3871,"ube":3872,"▁rip":3873,"▁orig":3874,"▁joker":3875,"▁bread":3876,"▁starts":3877,"shit":3878,"▁flavor":3879,"▁florida":3880,"▁novel":3881,"▁guard":3882,"▁socc":3883,"▁brand":3884,"▁attend":3885,"▁adjust":3886,"▁marijuana":3887,"▁faceless":3888,"▁cops":3889,"▁redditor":3890,"▁diapers":3891,"▁spec":3892,"▁horror":3893,"rope":3894,"▁signal":3895,"▁trigger":3896,"▁insult":3897,"▁glory":3898,"▁install":3899,"▁organs":3900,"▁transg":3901,"▁called":3902,"▁present":3903,"▁brag":3904,"▁visiting":3905,"▁speaking":3906,"▁else":3907,"▁consider":3908,"▁crash":3909,"▁airport":3910,"▁bros":3911,"▁thanos":3912,"▁vampires":3913,"▁books":3914,"▁gamer":3915,"▁solid":3916,"▁listening":3917,"▁touching":3918,"ucked":3919,"▁420":3920,"▁burrito":3921,"▁promote":3922,"▁latest":3923,"▁misunder":3924,"▁assassination":3925,"▁spirits":3926,"▁information":3927,"▁limbs":3928,"▁establish":3929,"▁customer":3930,"▁affair":3931,"▁geor":3932,"▁puppet":3933,"▁screw":3934,"▁ticket":3935,"▁witnesses":3936,"▁kitten":3937,"▁ampute":3938,"etti":3939,"▁meaning":3940,"▁mask":3941,"▁technique":3942,"▁rhy":3943,"▁toddler":3944,"▁cartoon":3945,"▁buddy":3946,"▁welcome":3947,"▁until":3948,"▁mexican":3949,"▁gerbil":3950,"▁inappropriate":3951,"▁browsing":3952,"▁advertise":3953,"▁participate":3954,"▁halluc":3955,"▁google":3956,"▁eliminate":3957,"▁negotiate":3958,"▁pesky":3959,"▁scissors":3960,"▁contemplate":3961,"▁airplane":3962,"▁elephant":3963,"drohomies":3964,"▁soccer":3965,"bow":3966,"cing":3967,"cri":3968,"da":3969,"ew":3970,"ech":3971,"gust":3972,"ha":3973,"iper":3974,"lor":3975,"lam":3976,"oe":3977,"racial":3978,"time":3979,"uct":3980,"uction":3981,"val":3982,"walk":3983,"xer":3984,"▁ow":3985,"▁ip":3986,"▁eth":3987,"▁tail":3988,"▁tren":3989,"▁hill":3990,"▁hors":3991,"▁honey":3992,"▁huge":3993,"▁aim":3994,"inlaw":3995,"▁york":3996,"▁sen":3997,"▁sour":3998,"▁six":3999,"erate":4000,"▁fab":4001,"▁fill":4002,"▁bald":4003,"▁pra":4004,"▁pers":4005,"▁pimp":4006,"▁wont":4007,"atic":4008,"▁dab":4009,"▁ducks":4010,"orb":4011,"order":4012,"▁gently":4013,"▁mate":4014,"▁mix":4015,"anch":4016,"alds":4017,"▁oil":4018,"▁oce":4019,"icu":4020,"▁lic":4021,"▁lack":4022,"▁nap":4023,"sters":4024,"▁rese":4025,"▁rent":4026,"▁easter":4027,"▁stab":4028,"▁stair":4029,"▁mag":4030,"iful":4031,"▁chest":4032,"▁kink":4033,"▁kitch":4034,"iger":4035,"cher":4036,"chool":4037,"change":4038,"▁makeup":4039,"ters":4040,"▁ath":4041,"▁seat":4042,"une":4043,"▁vul":4044,"▁asked":4045,"▁ascend":4046,"▁sudden":4047,"▁that’s":4048,"▁spook":4049,"▁spoon":4050,"▁spray":4051,"▁prem":4052,"▁exchange":4053,"▁produce":4054,"▁tex":4055,"▁board":4056,"▁comes":4057,"▁comment":4058,"▁disgust":4059,"ured":4060,"▁unlock":4061,"▁hear":4062,"▁offender":4063,"▁goes":4064,"ored":4065,"▁clones":4066,"▁peoples":4067,"▁handsh":4068,"iped":4069,"iance":4070,"▁trust":4071,"iven":4072,"ires":4073,"▁nobody":4074,"ugs":4075,"▁here":4076,"▁chew":4077,"▁works":4078,"▁emot":4079,"▁backwards":4080,"▁thrones":4081,"▁saw":4082,"▁said":4083,"▁swear":4084,"▁pornography":4085,"▁personality":4086,"▁explos":4087,"▁company":4088,"▁neighbours":4089,"▁accent":4090,"▁accord":4091,"▁picking":4092,"▁racially":4093,"▁grandparent":4094,"▁signals":4095,"▁balloon":4096,"▁telekin":4097,"▁farting":4098,"▁extreme":4099,"▁strong":4100,"▁consum":4101,"▁suppress":4102,"ledge":4103,"▁sucking":4104,"▁teenager":4105,"▁walking":4106,"▁priest":4107,"▁hydr":4108,"▁sitting":4109,"▁culture":4110,"▁argue":4111,"▁homosexual":4112,"▁baseball":4113,"▁strip":4114,"▁thought":4115,"wwikihowcom":4116,"▁choices":4117,"▁existential":4118,"▁admin":4119,"▁admire":4120,"▁haters":4121,"▁device":4122,"▁later":4123,"▁points":4124,"▁comfortable":4125,"▁interested":4126,"▁window":4127,"▁windows":4128,"▁patients":4129,"▁emojis":4130,"▁projection":4131,"▁captain":4132,"▁poorly":4133,"▁privile":4134,"▁capital":4135,"▁banana":4136,"▁century":4137,"▁emotionally":4138,"▁fulf":4139,"▁mcdon":4140,"▁levitate":4141,"▁smuggle":4142,"▁verb":4143,"▁african":4144,"▁jewish":4145,"▁expectations":4146,"▁mutant":4147,"▁exorc":4148,"▁alphabet":4149,"▁grocer":4150,"▁infection":4151,"▁beautiful":4152,"▁predator":4153,"▁totally":4154,"▁dangerous":4155,"▁maxim":4156,"▁vomit":4157,"▁important":4158,"▁opinion":4159,"▁severed":4160,"▁upset":4161,"▁robbery":4162,"▁lonely":4163,"▁spagh":4164,"▁enlarge":4165,"▁basketball":4166,"▁multiple":4167,"▁httpswwwwikihowcom":4168,"acuum":4169,"▁transgender":4170,"▁misunderstand":4171,"▁rhydrohomies":4172,"▁ocean":4173,"▁research":4174,"▁kitchen":4175,"bur":4176,"bang":4177,"cour":4178,"ek":4179,"eem":4180,"fuck":4181,"gre":4182,"game":4183,"hog":4184,"ii":4185,"iac":4186,"mark":4187,"oss":4188,"ody":4189,"pet":4190,"pop":4191,"ration":4192,"sized":4193,"wood":4194,"zen":4195,"▁q":4196,"▁tall":4197,"▁tamp":4198,"▁type":4199,"▁hi":4200,"▁hed":4201,"▁hop":4202,"▁hob":4203,"▁hipp":4204,"▁toe":4205,"▁tonight":4206,"▁aqu":4207,"▁yard":4208,"▁youll":4209,"▁sort":4210,"▁sib":4211,"▁south":4212,"erial":4213,"▁fer":4214,"▁fed":4215,"▁fond":4216,"▁fair":4217,"▁fram":4218,"▁fox":4219,"▁fbi":4220,"▁bite":4221,"▁born":4222,"▁bise":4223,"▁city":4224,"▁poo":4225,"▁pair":4226,"▁pier":4227,"▁pony":4228,"onic":4229,"▁wine":4230,"▁thicc":4231,"▁dro":4232,"▁dancing":4233,"itating":4234,"ora":4235,"orr":4236,"orph":4237,"▁mount":4238,"▁mourn":4239,"▁inse":4240,"▁inject":4241,"▁od":4242,"▁lot":4243,"▁loud":4244,"▁lung":4245,"acked":4246,"▁beg":4247,"▁nic":4248,"▁nail":4249,"▁numb":4250,"▁anth":4251,"▁anger":4252,"ril":4253,"ried":4254,"▁witch":4255,"▁ease":4256,"ilize":4257,"ilities":4258,"▁stage":4259,"▁stash":4260,"▁stole":4261,"▁ut":4262,"▁whale":4263,"▁forgot":4264,"endar":4265,"▁magn":4266,"▁kind":4267,"elling":4268,"opath":4269,"oli":4270,"▁jug":4271,"▁ash":4272,"▁ris":4273,"utely":4274,"gehog":4275,"▁span":4276,"ulk":4277,"▁outdo":4278,"▁upd":4279,"▁boomer":4280,"▁notes":4281,"▁alb":4282,"▁compare":4283,"▁common":4284,"▁display":4285,"▁roof":4286,"aggy":4287,"▁click":4288,"▁close":4289,"▁webs":4290,"▁man’s":4291,"▁rain":4292,"▁tran":4293,"▁trouble":4294,"▁truth":4295,"▁grind":4296,"▁usa":4297,"▁activ":4298,"▁trapped":4299,"▁perman":4300,"▁across":4301,"▁herpes":4302,"▁guess":4303,"▁guitar":4304,"▁property":4305,"▁soft":4306,"▁workout":4307,"▁interracial":4308,"▁intercour":4309,"ought":4310,"▁plans":4311,"▁girlfriend’s":4312,"▁keeping":4313,"▁goodby":4314,"▁realm":4315,"▁aware":4316,"▁sniper":4317,"▁13":4318,"brate":4319,"▁crow":4320,"▁steve":4321,"▁decorate":4322,"▁winter":4323,"▁feeling":4324,"▁training":4325,"▁cars":4326,"▁rule":4327,"▁furson":4328,"▁putting":4329,"▁waterboard":4330,"▁community":4331,"▁moms":4332,"▁growing":4333,"▁repair":4334,"▁erase":4335,"▁transplant":4336,"▁zoo":4337,"▁calendar":4338,"▁prescri":4339,"▁50":4340,"▁musical":4341,"▁singing":4342,"riminate":4343,"▁forehead":4344,"▁media":4345,"▁incor":4346,"▁genie":4347,"▁supply":4348,"▁mini":4349,"▁fired":4350,"▁weeaboo":4351,"▁falling":4352,"▁grandmas":4353,"▁salt":4354,"▁possible":4355,"▁raped":4356,"▁purch":4357,"▁epis":4358,"▁alcoholism":4359,"▁casual":4360,"▁unique":4361,"▁burns":4362,"▁cycl":4363,"▁exciting":4364,"▁titan":4365,"▁camel":4366,"▁camera":4367,"▁crossdress":4368,"▁custom":4369,"▁socially":4370,"suit":4371,"▁roller":4372,"▁httpsmwikihowcom":4373,"▁narut":4374,"ground":4375,"▁education":4376,"▁supreme":4377,"▁jeffrey":4378,"▁deformed":4379,"▁circumc":4380,"▁sarah":4381,"▁pronounce":4382,"▁weapon":4383,"▁armpit":4384,"▁teddy":4385,"▁critic":4386,"▁innoc":4387,"▁absolutely":4388,"▁disabled":4389,"▁hallucin":4390,"▁emotions":4391,"▁mcdonalds":4392,"▁spaghetti":4393,"▁hedgehog":4394,"▁bisexual":4395,"▁intercourse":4396,"▁goodbye":4397,"▁fursona":4398,"bre":4399,"bon":4400,"cr":4401,"con":4402,"dog":4403,"gas":4404,"gth":4405,"gue":4406,"ku":4407,"more":4408,"mail":4409,"nic":4410,"oly":4411,"pro":4412,"rd":4413,"rom":4414,"rising":4415,"uke":4416,"uri":4417,"ugh":4418,"vacc":4419,"wr":4420,"yan":4421,"▁hog":4422,"inter":4423,"▁yo":4424,"▁yellow":4425,"▁ske":4426,"▁samp":4427,"▁fell":4428,"▁fest":4429,"▁fine":4430,"▁foc":4431,"▁field":4432,"▁bene":4433,"▁bought":4434,"▁pink":4435,"▁pian":4436,"▁west":4437,"▁wick":4438,"▁wiz":4439,"▁wiki":4440,"▁thum":4441,"▁dan":4442,"▁dun":4443,"itor":4444,"▁gf":4445,"▁golf":4446,"▁ml":4447,"▁mating":4448,"▁mute":4449,"▁mothers":4450,"ari":4451,"aries":4452,"▁ine":4453,"▁inher":4454,"▁oc":4455,"▁oly":4456,"icit":4457,"▁ly":4458,"▁laz":4459,"▁nam":4460,"vey":4461,"▁ants":4462,"▁reuse":4463,"▁std":4464,"▁stim":4465,"▁stren":4466,"▁uber":4467,"sexual":4468,"ooby":4469,"▁chi":4470,"▁champ":4471,"▁chances":4472,"igan":4473,"chan":4474,"▁shock":4475,"ams":4476,"ament":4477,"▁jizz":4478,"▁james":4479,"▁sea":4480,"▁vs":4481,"▁vent":4482,"▁vig":4483,"▁vape":4484,"▁vote":4485,"▁vacuum":4486,"▁rt":4487,"▁rans":4488,"uts":4489,"▁lives":4490,"ared":4491,"ares":4492,"antage":4493,"▁constr":4494,"▁leaves":4495,"▁uprising":4496,"▁loans":4497,"▁moist":4498,"▁comic":4499,"▁blond":4500,"▁knee":4501,"▁disneyvacation":4502,"▁disability":4503,"izes":4504,"▁princ":4505,"oodoo":4506,"▁knows":4507,"▁hearing":4508,"▁arous":4509,"▁roy":4510,"aging":4511,"aged":4512,"agers":4513,"▁drum":4514,"▁clim":4515,"▁rage":4516,"▁shows":4517,"▁scal":4518,"▁scooby":4519,"▁orange":4520,"▁parts":4521,"▁starting":4522,"▁aveng":4523,"▁flav":4524,"▁flint":4525,"▁overd":4526,"spicu":4527,"oster":4528,"▁attach":4529,"▁coll":4530,"▁creative":4531,"▁turned":4532,"▁phil":4533,"▁phant":4534,"▁realistic":4535,"▁25":4536,"brush":4537,"▁diab":4538,"▁policy":4539,"▁decid":4540,"▁slap":4541,"▁heads":4542,"▁gramm":4543,"cient":4544,"▁“the":4545,"▁shitpost":4546,"▁accom":4547,"▁accur":4548,"▁account":4549,"▁hotel":4550,"▁invent":4551,"▁took":4552,"▁sleepover":4553,"▁serious":4554,"ception":4555,"▁ike":4556,"rooms":4557,"▁location":4558,"▁murdered":4559,"duction":4560,"▁grey":4561,"▁perfectly":4562,"▁celebrity":4563,"▁twins":4564,"▁muslim":4565,"▁worlds":4566,"▁wars":4567,"▁pooping":4568,"▁holding":4569,"▁gener":4570,"▁shady":4571,"▁midget":4572,"▁discriminate":4573,"▁behav":4574,"▁sisters":4575,"▁weeb":4576,"▁advantage":4577,"▁hybri":4578,"▁bulge":4579,"▁souls":4580,"▁sneaky":4581,"▁faster":4582,"▁disappear":4583,"▁cardi":4584,"▁faces":4585,"▁bullies":4586,"▁photos":4587,"▁burgl":4588,"▁nature":4589,"▁indul":4590,"▁casting":4591,"▁crying":4592,"▁michigan":4593,"hero":4594,"▁cyber":4595,"▁lawn":4596,"▁laws":4597,"▁positive":4598,"▁influ":4599,"▁title":4600,"▁candle":4601,"▁border":4602,"▁elev":4603,"▁spelling":4604,"▁hunting":4605,"▁encounter":4606,"▁employee":4607,"▁valentine":4608,"▁sentient":4609,"▁fully":4610,"▁minorities":4611,"▁africa":4612,"▁appropriately":4613,"▁immigration":4614,"▁hooker":4615,"▁failed":4616,"▁exorcise":4617,"▁intimidate":4618,"▁alpha":4619,"▁motor":4620,"▁town":4621,"▁okay":4622,"▁knockoff":4623,"▁keyboard":4624,"▁aggressive":4625,"▁walmart":4626,"▁amazon":4627,"▁corpse":4628,"▁request":4629,"▁stereotypes":4630,"▁villain":4631,"▁diagnose":4632,"▁panties":4633,"▁hypn":4634,"▁fleshlight":4635,"▁favour":4636,"▁prime":4637,"▁nickn":4638,"▁spongebo":4639,"▁allegiance":4640,"▁bucket":4641,"▁coolest":4642,"▁wrestling":4643,"▁inconspicu":4644,"▁frozen":4645,"▁daily":4646,"▁provide":4647,"▁efficiently":4648,"▁schizophrenia":4649,"▁species":4650,"▁horses":4651,"▁praise":4652,"▁handshake":4653,"▁grandparents":4654,"▁telekinetic":4655,"▁privilege":4656,"▁frame":4657,"▁album":4658,"▁episode":4659,"▁naruto":4660,"▁olymp":4661,"▁strength":4662,"▁blonde":4663,"▁avengers":4664,"aunt":4665,"bt":4666,"cess":4667,"down":4668,"eal":4669,"eve":4670,"function":4671,"gram":4672,"hand":4673,"hone":4674,"lings":4675,"ned":4676,"pan":4677,"point":4678,"rist":4679,"sen":4680,"tf":4681,"ted":4682,"vious":4683,"we":4684,"▁et":4685,"▁ell":4686,"▁elf":4687,"▁ten":4688,"▁tent":4689,"▁troll":4690,"▁hiv":4691,"▁hous":4692,"▁huff":4693,"▁toes":4694,"▁toxic":4695,"oust":4696,"inis":4697,"inem":4698,"▁younger":4699,"▁sor":4700,"▁sle":4701,"▁sau":4702,"ercial":4703,"ergy":4704,"rent":4705,"▁fra":4706,"▁file":4707,"▁fool":4708,"▁fucked":4709,"▁bb":4710,"▁bac":4711,"▁bake":4712,"▁cage":4713,"▁came":4714,"▁port":4715,"▁pitch":4716,"onna":4717,"▁went":4718,"▁ward":4719,"▁wrap":4720,"ati":4721,"atio":4722,"▁doo":4723,"▁dum":4724,"▁daw":4725,"▁dump":4726,"▁danny":4727,"▁mal":4728,"▁mile":4729,"▁merm":4730,"▁theory":4731,"etime":4732,"arp":4733,"▁inj":4734,"▁inch":4735,"ica":4736,"▁nude":4737,"▁nword":4738,"▁north":4739,"▁ancient":4740,"stal":4741,"right":4742,"▁reason":4743,"ots":4744,"otch":4745,"ilian":4746,"▁uk":4747,"sequ":4748,"ended":4749,"lywood":4750,"▁chip":4751,"rab":4752,"▁dopp":4753,"▁dodge":4754,"▁dep":4755,"▁delete":4756,"union":4757,"▁void":4758,"▁voodoo":4759,"▁rit":4760,"▁rick":4761,"▁suff":4762,"▁consp":4763,"▁conduct":4764,"ula":4765,"▁friendly":4766,"istry":4767,"▁upon":4768,"▁program":4769,"▁intel":4770,"▁loving":4771,"▁alread":4772,"▁moves":4773,"▁knees":4774,"thy":4775,"▁disp":4776,"▁diss":4777,"▁disorder":4778,"▁unborn":4779,"▁unvacc":4780,"aken":4781,"▁items":4782,"quire":4783,"▁poker":4784,"▁goat":4785,"▁goals":4786,"▁rod":4787,"▁clown":4788,"▁claim":4789,"▁scp":4790,"▁scold":4791,"▁feature":4792,"▁flowers":4793,"▁means":4794,"▁teaching":4795,"neck":4796,"angle":4797,"▁qual":4798,"▁adam":4799,"ptoms":4800,"▁reminis":4801,"osed":4802,"▁can’t":4803,"▁contin":4804,"▁command":4805,"▁saus":4806,"▁baby’s":4807,"▁pornstar":4808,"▁agent":4809,"▁recon":4810,"▁recru":4811,"▁polish":4812,"▁winner":4813,"▁cleaning":4814,"▁butth":4815,"▁confess":4816,"▁skip":4817,"▁speech":4818,"ocked":4819,"▁fetishes":4820,"▁carpet":4821,"▁grades":4822,"▁himself":4823,"▁starter":4824,"▁nightm":4825,"▁humanity":4826,"▁coup":4827,"▁justin":4828,"coon":4829,"▁endgame":4830,"▁saying":4831,"▁grandpa":4832,"▁series":4833,"▁pretending":4834,"▁protein":4835,"lessly":4836,"▁shooter":4837,"▁superhero":4838,"▁warri":4839,"▁infant":4840,"▁infinity":4841,"▁article":4842,"▁charge":4843,"▁consume":4844,"▁images":4845,"▁treatment":4846,"▁auth":4847,"▁medic":4848,"▁meditation":4849,"▁incl":4850,"▁incel":4851,"▁income":4852,"▁airb":4853,"▁pigs":4854,"000":4855,"▁register":4856,"▁rabbits":4857,"▁urinate":4858,"▁paral":4859,"▁committing":4860,"▁matter":4861,"▁material":4862,"▁edgy":4863,"▁politics":4864,"▁politician":4865,"▁resume":4866,"▁motherinlaw":4867,"▁tricks":4868,"▁restrain":4869,"▁videos":4870,"▁rocks":4871,"▁doesn’t":4872,"▁peek":4873,"aneously":4874,"▁recognise":4875,"▁engine":4876,"▁wifes":4877,"▁metoo":4878,"▁drunken":4879,"▁xbox":4880,"▁rapist":4881,"▁cockat":4882,"▁lightbul":4883,"▁simulate":4884,"▁simple":4885,"▁building":4886,"▁bowling":4887,"▁dollar":4888,"▁turkey":4889,"▁devil":4890,"▁rejected":4891,"▁golden":4892,"▁goldfish":4893,"▁romance":4894,"▁excited":4895,"▁inflate":4896,"▁hidden":4897,"▁package":4898,"▁iron":4899,"▁lasers":4900,"▁closed":4901,"▁illustr":4902,"▁suspect":4903,"▁dental":4904,"▁leader":4905,"▁hunger":4906,"▁absorb":4907,"▁physics":4908,"▁capture":4909,"▁bride":4910,"▁oppon":4911,"▁status":4912,"▁adopted":4913,"▁narc":4914,"▁propos":4915,"▁emotional":4916,"▁canada":4917,"▁nudes":4918,"▁appropriate":4919,"▁antivaxxer":4920,"▁balance":4921,"▁warning":4922,"▁obsession":4923,"▁unsus":4924,"▁submit":4925,"▁aggressively":4926,"▁symptoms":4927,"▁arrange":4928,"▁combat":4929,"jobs":4930,"▁socks":4931,"▁bleach":4932,"▁fanfiction":4933,"▁hipster":4934,"▁routine":4935,"▁happened":4936,"▁duty":4937,"▁ejaculate":4938,"▁euthanize":4939,"▁enhance":4940,"▁professor":4941,"▁results":4942,"▁despite":4943,"▁changing":4944,"▁original":4945,"▁george":4946,"▁amputee":4947,"▁source":4948,"▁vulcan":4949,"▁explosive":4950,"▁according":4951,"▁fulfill":4952,"▁prescription":4953,"▁incorrect":4954,"▁purchase":4955,"▁cyclops":4956,"▁circumcision":4957,"▁piano":4958,"▁thumbs":4959,"▁inherit":4960,"▁ransom":4961,"▁phantom":4962,"▁nickname":4963,"▁mermaid":4964,"▁already":4965,"▁unvaccinated":4966,"aired":4967,"bell":4968,"bol":4969,"but":4970,"cy":4971,"croph":4972,"gers":4973,"gien":4974,"hu":4975,"ixt":4976,"lers":4977,"ped":4978,"ral":4979,"uel":4980,"vity":4981,"ware":4982,"worm":4983,"zer":4984,"▁tend":4985,"▁tight":4986,"▁tips":4987,"▁taunt":4988,"▁hal":4989,"▁hic":4990,"▁hood":4991,"▁hour":4992,"▁toast":4993,"▁tourn":4994,"▁toup":4995,"▁toys":4996,"▁tough":4997}