{"<unk>":0,"!":1,"\"":2,"#":3,"$":4,"%":5,"&":6,"'":7,"(":8,")":9,"*":10,"+":11,",":12,"-":13,".":14,"/":15,"0":16,"1":17,"2":18,"3":19,"4":20,"5":21,"6":22,"7":23,"8":24,"9":25,":":26,";":27,"=":28,"?":29,"@":30,"I":31,"M":32,"P":33,"R":34,"T":35,"[":36,"]":37,"_":38,"a":39,"b":40,"c":41,"d":42,"e":43,"f":44,"g":45,"h":46,"i":47,"j":48,"k":49,"l":50,"m":51,"n":52,"o":53,"p":54,"q":55,"r":56,"s":57,"t":58,"u":59,"v":60,"w":61,"x":62,"y":63,"z":64,"|":65,"~":66,"¢":67,"©":68,"®":69,"°":70,"à":71,"ä":72,"é":73,"í":74,"ñ":75,"ö":76,"ü":77,"ţ":78,"ʖ":79,"̀":80,"́":81,"̂":82,"̃":83,"̄":84,"̅":85,"̆":86,"̇":87,"̈":88,"̊":89,"̌":90,"̍":91,"̏":92,"̓":93,"̔":94,"̕":95,"̖":96,"̗":97,"̘":98,"̙":99,"̚":100,"̛":101,"̞":102,"̢":103,"̯":104,"̴":105,"̷":106,"̸":107,"̹":108,"̺":109,"̽":110,"̾":111,"͉":112,"͋":113,"͌":114,"͎":115,"͐":116,"͑":117,"͒":118,"͓":119,"͗":120,"͘":121,"͙":122,"͚":123,"͜":124,"͠":125,"͡":126,"е":127,"​":128,"‍":129,"‏":130,"‐":131,"—":132,"‘":133,"’":134,"“":135,"”":136,"„":137,"•":138,"▁":139,"⚠":140,"「":141,"」":142,"『":143,"』":144,"丅":145,"乂":146,"乇":147,"匚":148,"卂":149,"卄":150,"尺":151,"工":152,"️":153,"🌈":154,"🍆":155,"🍹":156,"🎵":157,"🎶":158,"🏳":159,"👄":160,"👌":161,"👮":162,"💥":163,"💦":164,"😍":165,"😫":166,"🥜":167,"🥪":168,"🥴":169,"🦖":170,"▁t":171,"▁h":172,"▁to":173,"ow":174,"▁how":175,"▁a":176,"ou":177,"in":178,"▁y":179,"▁you":180,"▁s":181,"▁your":182,"re":183,"er":184,"▁f":185,"▁b":186,"▁c":187,"▁p":188,"on":189,"▁w":190,"he":191,"at":192,"▁d":193,"it":194,"en":195,"or":196,"▁g":197,"▁m":198,"an":199,"▁the":200,"ing":201,"le":202,"al":203,"is":204,"om":205,"ar":206,"▁in":207,"et":208,"es":209,"▁o":210,"ic":211,"▁l":212,"el":213,"ke":214,"ac":215,"▁be":216,"▁n":217,"st":218,"ve":219,"▁an":220,"ri":221,"▁of":222,"ith":223,"▁with":224,"▁re":225,"▁e":226,"ot":227,"il":228,"▁st":229,"▁u":230,"se":231,"id":232,"ro":233,"▁for":234,"ion":235,"▁th":236,"▁get":237,"ir":238,"oo":239,"end":240,"▁ma":241,"▁on":242,"ly":243,"if":244,"ed":245,"out":246,"ay":247,"ome":248,"ur":249,"▁k":250,"ss":251,"ate":252,"ent":253,"im":254,"ra":255,"ig":256,"ct":257,"▁ha":258,"ell":259,"▁do":260,"ch":261,"▁ch":262,"op":263,"am":264,"riend":265,"▁make":266,"▁de":267,"▁sh":268,"ce":269,"ter":270,"▁at":271,"ad":272,"ol":273,"▁wh":274,"▁fr":275,"ver":276,"one":277,"▁whe":278,"and":279,"▁j":280,"▁se":281,"▁from":282,"un":283,"art":284,"▁tell":285,"▁v":286,"▁ne":287,"▁as":288,"ut":289,"as":290,"▁r":291,"▁su":292,"ck":293,"▁that":294,"▁li":295,"▁when":296,"are":297,"▁if":298,"ge":299,"▁sp":300,"ant":301,"ul":302,"▁con":303,"▁friend":304,"▁and":305,"ist":306,"'s":307,"▁pre":308,"ind":309,"ive":310,"ers":311,"igh":312,"pp":313,"▁is":314,"▁le":315,"▁out":316,"▁ex":317,"ation":318,"um":319,"▁up":320,"▁ab":321,"est":322,"▁pl":323,"▁pro":324,"▁int":325,"ack":326,"▁have":327,"▁te":328,"ill":329,"ab":330,"act":331,"ide":332,"us":333,"▁cat":334,"ine":335,"ild":336,"▁some":337,"▁bo":338,"ile":339,"▁like":340,"ick":341,"ap":342,"all":343,"▁not":344,"▁bec":345,"▁dog":346,"ice":347,"▁lo":348,"▁al":349,"pl":350,"ain":351,"ep":352,"▁mo":353,"gh":354,"▁about":355,"▁com":356,"▁kn":357,"▁bl":358,"elf":359,"ally":360,"th":361,"ook":362,"▁dis":363,"irl":364,"ure":365,"ast":366,"iz":367,"▁into":368,"▁un":369,"ake":370,"em":371,"▁become":372,"▁pe":373,"ect":374,"’s":375,"▁child":376,"▁someone":377,"▁sex":378,"▁pr":379,"ood":380,"own":381,"ak":382,"▁girl":383,"▁he":384,"per":385,"▁know":386,"ie":387,"ight":388,"qu":389,"▁it":390,"▁co":391,"▁wor":392,"▁use":393,"▁af":394,"ife":395,"dd":396,"▁by":397,"self":398,"▁off":399,"ach":400,"▁po":401,"ess":402,"ish":403,"▁go":404,"▁ar":405,"ard":406,"▁find":407,"friend":408,"ry":409,"▁yourself":410,"der":411,"ite":412,"▁en":413,"▁we":414,"s.":415,"▁are":416,"ace":417,"ag":418,"▁ro":419,"ore":420,"ime":421,"▁dr":422,"▁im":423,"ress":424,"▁cl":425,"▁after":426,"ople":427,"ub":428,"ink":429,"▁sc":430,"▁people":431,"ool":432,"▁hand":433,"ies":434,"for":435,"▁ri":436,"▁new":437,"alk":438,"ip":439,"nt":440,"ath":441,"▁man":442,"ize":443,"▁while":444,"pare":445,"▁show":446,"age":447,"▁you'":448,"ial":449,"▁ra":450,"▁fe":451,"▁stop":452,"ian":453,"▁or":454,"▁tr":455,"▁friends":456,"ity":457,"▁jo":458,"▁give":459,"▁gr":460,"ust":461,"ting":462,"ass":463,"▁bre":464,"oth":465,"▁prepare":466,"ame":467,"ving":468,"▁start":469,"sing":470,"▁part":471,"urn":472,"orn":473,"oid":474,"▁av":475,"▁kid":476,"▁look":477,"ire":478,"ous":479,"▁che":480,"sh":481,"▁sm":482,"ud":483,"▁act":484,"▁deal":485,"▁fl":486,"▁what":487,"ict":488,"▁time":489,"▁over":490,"▁being":491,"▁no":492,"ug":493,"ating":494,"▁me":495,"sp":496,"▁tra":497,"▁play":498,"▁per":499,"mon":500,"▁wat":501,"ber":502,"oy":503,"▁you're":504,"▁avoid":505,"▁sch":506,"ort":507,"▁life":508,"ff":509,"▁teach":510,"ase":511,"ld":512,"▁boy":513,"ne":514,"uck":515,"ise":516,"▁ac":517,"ance":518,"▁gu":519,"▁ke":520,"ident":521,"▁proper":522,"ang":523,"ble":524,"▁so":525,"ong":526,"▁work":527,"▁her":528,"iv":529,"og":530,"ost":531,"ely":532,"▁sur":533,"ner":534,"▁br":535,"▁school":536,"au":537,"▁qu":538,"our":539,"▁can":540,"▁att":541,"▁you’":542,"▁col":543,"▁talk":544,"ough":545,"▁sa":546,"▁plan":547,"ment":548,"oun":549,"▁wr":550,"pt":551,"▁ad":552,"▁girlfriend":553,"cre":554,"▁back":555,"▁em":556,"ign":557,"▁ass":558,"▁without":559,"▁rem":560,"▁keep":561,"du":562,"▁take":563,"ree":564,"▁good":565,"other":566,"▁using":567,"▁let":568,"▁imp":569,"de":570,"▁hide":571,"form":572,"▁(":573,"ren":574,"erm":575,"erson":576,"▁turn":577,"▁cre":578,"▁inter":579,"ual":580,"▁thr":581,"▁who":582,"▁\"":583,"ouse":584,"able":585,"▁properly":586,"▁own":587,"▁cont":588,"▁comm":589,"'t":590,"▁day":591,"▁his":592,"dy":593,"▁ph":594,"▁real":595,"▁app":596,"ily":597,"av":598,"ose":599,"▁home":600,"▁sw":601,"▁ask":602,"▁all":603,"▁bab":604,"ddit":605,"▁tw":606,"ult":607,"▁one":608,"way":609,"▁mar":610,"▁sn":611,"▁ey":612,"old":613,"get":614,"xt":615,"ans":616,"▁baby":617,"▁pet":618,"ail":619,"ear":620,"▁fam":621,"ond":622,"ird":623,"oot":624,"▁face":625,"▁you’re":626,"▁date":627,"ia":628,"int":629,"▁ste":630,"▁fun":631,"▁bu":632,"▁porn":633,"▁person":634,"▁expl":635,"▁eat":636,"ctor":637,"▁hel":638,"▁cle":639,"ash":640,"tle":641,"▁cop":642,"ght":643,"br":644,"▁ag":645,"amp":646,"▁2":647,"▁rec":648,"▁kill":649,"▁react":650,"▁1":651,"arm":652,"▁love":653,"▁mast":654,"▁r/":655,"▁break":656,"ph":657,"▁cr":658,"irst":659,"ound":660,"▁down":661,"ank":662,"▁doctor":663,"▁reddit":664,"▁boyfriend":665,"▁di":666,"os":667,"▁wom":668,"ue":669,"▁she":670,"very":671,"arent":672,"▁help":673,"ich":674,"▁read":675,"▁pol":676,"ik":677,"▁dec":678,"▁parent":679,"▁win":680,"ence":681,"▁add":682,"oney":683,"▁hum":684,"▁sl":685,"reat":686,"▁rel":687,"urb":688,"uring":689,"er.":690,"▁pract":691,"ens":692,"▁ev":693,"play":694,"ful":695,"ll":696,"les":697,"iss":698,"..":699,"▁first":700,"▁but":701,"▁don":702,"▁clean":703,"▁family":704,"▁am":705,"▁fet":706,"▁gh":707,"▁pen":708,"ney":709,"▁practice":710,"▁think":711,"▁comp":712,"▁rid":713,"ction":714,"▁neigh":715,"▁drug":716,"▁neighb":717,"▁pub":718,"▁want":719,"▁money":720,"▁black":721,"▁ghost":722,"▁during":723,"ock":724,"▁wife":725,"▁next":726,"ert":727,"eth":728,"up":729,"▁has":730,"bo":731,"▁high":732,"▁ident":733,"▁sk":734,"▁getting":735,"▁conf":736,"▁kids":737,"lic":738,"▁way":739,"▁dra":740,"▁resp":741,"▁under":742,"be":743,"ger":744,"▁best":745,"arn":746,"▁spe":747,"oc":748,"ify":749,"▁explain":750,"▁house":751,"ition":752,"leep":753,"▁watch":754,"iki":755,"▁their":756,"how":757,"▁det":758,"▁gay":759,"▁hair":760,"▁feel":761,"▁train":762,"▁car":763,"▁party":764,"▁cope":765,"fe":766,"joy":767,"▁more":768,"▁write":769,"▁post":770,"▁surv":771,"ave":772,"ors":773,"▁head":774,"cc":775,"▁away":776,"oose":777,"▁sub":778,"vie":779,"▁pret":780,"▁enjoy":781,"▁guy":782,"▁mem":783,"▁ru":784,"▁check":785,"▁through":786,"▁masturb":787,"ord":788,"▁gra":789,"▁see":790,"ush":791,"▁colle":792,"▁fur":793,"▁care":794,"esc":795,"▁arm":796,"▁fetish":797,"ikihow":798,"vers":799,"▁right":800,"▁human":801,"ci":802,"▁him":803,"▁night":804,"▁star":805,"▁survive":806,"ork":807,"augh":808,"▁“":809,"▁fin":810,"▁shit":811,"▁conv":812,"▁public":813,"uch":814,"▁put":815,"anc":816,"▁drink":817,"▁bad":818,"▁pick":819,"▁parents":820,"fect":821,"ty":822,"▁cou":823,"ract":824,"ually":825,"ark":826,"ary":827,"▁perform":828,"app":829,"co":830,"vel":831,"▁cow":832,"▁inv":833,"▁hot":834,"▁too":835,"▁they":836,"ump":837,"▁acc":838,"▁again":839,"▁cor":840,"ked":841,"▁this":842,"▁just":843,"▁exp":844,"iction":845,"▁steal":846,"aw":847,"▁end":848,"ont":849,"▁every":850,"ob":851,"acation":852,"▁having":853,"ute":854,"▁water":855,"▁son":856,"ings":857,"ical":858,"▁job":859,"▁hor":860,"▁fing":861,"▁game":862,"let":863,"ism":864,"▁cos":865,"▁say":866,"▁oth":867,"▁rac":868,"ious":869,"use":870,"itch":871,"▁them":872,"ull":873,"ince":874,"▁sleep":875,"▁big":876,"▁grand":877,"ship":878,"▁penis":879,"▁identify":880,"▁pretend":881,"uce":882,"▁mon":883,"▁commun":884,"een":885,"vot":886,"▁sed":887,"▁fuck":888,"ing.":889,"day":890,"▁lit":891,"▁leg":892,"▁prot":893,"ft":894,"man":895,"▁call":896,"▁any":897,"rop":898,"▁body":899,"▁year":900,"▁sign":901,"cept":902,"▁white":903,"gin":904,"ated":905,"▁mom":906,"▁demon":907,"ape":908,"ject":909,"▁tri":910,"▁bet":911,"▁ce":912,"▁sure":913,"cle":914,"fore":915,"▁ins":916,"▁succ":917,"▁grow":918,"▁convince":919,"ds":920,"▁ser":921,"omin":922,"▁rep":923,"▁eye":924,"▁food":925,"▁ball":926,"▁wikihow":927,"ange":928,"es.":929,"▁bird":930,"▁gi":931,"▁gl":932,"▁mur":933,"▁before":934,"▁dead":935,"▁spot":936,"duce":937,"bs":938,"▁fart":939,"▁chr":940,"▁furry":941,"ient":942,"ror":943,"ister":944,"room":945,"▁tele":946,"▁create":947,"aa":948,"me":949,"▁will":950,"▁long":951,"▁ann":952,"▁ear":953,"▁choose":954,"▁loc":955,"▁blow":956,"▁wear":957,"▁woman":958,"air":959,"vent":960,"▁fight":961,"▁inst":962,"ions":963,"oop":964,"▁where":965,"▁children":966,"▁org":967,"▁trans":968,"▁seduce":969,"com":970,"▁i":971,"ream":972,"▁come":973,"▁pay":974,"▁pun":975,"▁op":976,"▁sexual":977,"cret":978,"bit":979,"ower":980,"red":981,"ory":982,"▁decide":983,"line":984,"▁hit":985,"rest":986,"rect":987,"▁gre":988,"ster":989,"▁shoot":990,"▁prof":991,"▁hands":992,"▁cosplay":993,"▁3":994,"▁z":995,"▁ve":996,"▁cal":997,"▁run":998,"▁live":999,"▁pres":1000,"▁attack":1001,"ole":1002,"▁fant":1003,"▁bra":1004,"▁dri":1005,"▁list":1006,"▁art":1007,"ermine":1008,"▁draw":1009,"▁fantas":1010,"ale":1011,"▁pain":1012,"▁relation":1013,"n't":1014,"’t":1015,"▁test":1016,"▁only":1017,"▁dep":1018,"▁sum":1019,"▁lose":1020,"▁movie":1021,"▁ready":1022,"▁determine":1023,"▁success":1024,"ret":1025,"▁ple":1026,"less":1027,"▁20":1028,"▁addiction":1029,"▁cele":1030,"▁domin":1031,"▁old":1032,"ically":1033,"▁vis":1034,"asure":1035,"▁super":1036,"▁partner":1037,"▁perfect":1038,"▁cook":1039,"▁dress":1040,"ese":1041,"▁stay":1042,"▁step":1043,"sed":1044,"▁ext":1045,"▁intern":1046,"▁phone":1047,"▁celebr":1048,"gn":1049,"▁din":1050,"▁happ":1051,"▁death":1052,"▁twin":1053,"cial":1054,"ee":1055,"ib":1056,"ipp":1057,"▁free":1058,"▁been":1059,"▁really":1060,"▁accept":1061,"▁relationship":1062,"ible":1063,"y.":1064,"▁self":1065,"▁mus":1066,"ember":1067,"▁world":1068,"▁horse":1069,"ax":1070,"pe":1071,"uss":1072,"▁5":1073,"▁war":1074,"ann":1075,"ics":1076,"▁christ":1077,"che":1078,"▁sing":1079,"▁je":1080,"▁vir":1081,"▁room":1082,"▁eyes":1083,"ys":1084,"als":1085,"▁prevent":1086,"▁speak":1087,"az":1088,"band":1089,"io":1090,"▁pass":1091,"▁poop":1092,"ison":1093,"ade":1094,"▁remember":1095,"▁drugs":1096,"ove":1097,"▁sy":1098,"▁fish":1099,"▁dad":1100,"outh":1101,"▁ham":1102,"aper":1103,"▁impress":1104,"▁murder":1105,"▁har":1106,"ender":1107,"▁chick":1108,"▁suic":1109,"▁neighbor":1110,"▁successful":1111,"ling":1112,"▁el":1113,"▁sell":1114,"▁dance":1115,"usband":1116,"▁rab":1117,"eric":1118,"▁pot":1119,"▁mind":1120,"str":1121,"▁str":1122,"▁char":1123,"▁secret":1124,"ants":1125,"▁cons":1126,"▁imag":1127,"▁dinner":1128,"▁ent":1129,"▁treat":1130,"▁aut":1131,"▁bed":1132,"▁buy":1133,"▁little":1134,"ps":1135,"▁hold":1136,"▁husband":1137,"▁fore":1138,"▁class":1139,"▁meet":1140,"▁annoy":1141,"▁internet":1142,"ward":1143,"▁esc":1144,"▁foot":1145,"▁cra":1146,"▁med":1147,"▁inc":1148,"icate":1149,"irt":1150,"▁upvot":1151,"▁blind":1152,"▁god":1153,"▁respond":1154,"▁other":1155,"king":1156,"▁fav":1157,"▁bat":1158,"▁pri":1159,"arma":1160,"▁ruin":1161,"aughter":1162,"▁stud":1163,"▁vict":1164,"▁need":1165,"▁rob":1166,"fort":1167,"▁join":1168,"▁butt":1169,"▁celebrate":1170,"▁suicide":1171,"ball":1172,"fl":1173,"▁sat":1174,"▁pig":1175,"ons":1176,"▁karma":1177,"▁vamp":1178,"▁supp":1179,"neyv":1180,"▁against":1181,"by":1182,"gg":1183,"▁toile":1184,"▁air":1185,"▁sou":1186,"▁gen":1187,"▁mat":1188,"▁ob":1189,"▁last":1190,"▁eating":1191,"unk":1192,"▁save":1193,"▁realize":1194,"▁protect":1195,"neyvacation":1196,"▁toilet":1197,"▁set":1198,"▁dick":1199,"stand":1200,"▁reg":1201,"▁stand":1202,"▁shad":1203,"▁intro":1204,"▁contro":1205,"▁don't":1206,"▁correct":1207,"▁summon":1208,"ca":1209,"▁ter":1210,"▁bath":1211,"▁min":1212,"▁ur":1213,"▁catch":1214,"▁feed":1215,"▁rabbit":1216,"dis":1217,"yle":1218,"▁ign":1219,"▁pat":1220,"▁mother":1221,"▁neck":1222,"▁boss":1223,"▁handle":1224,"▁breast":1225,"▁women":1226,"▁finger":1227,"▁victim":1228,"ness":1229,"pr":1230,"ould":1231,"▁bro":1232,"ator":1233,"▁mid":1234,"▁than":1235,"▁spice":1236,"▁commit":1237,"▁vampire":1238,"ien":1239,"pose":1240,"inate":1241,"rees":1242,"▁bir":1243,"▁cut":1244,"▁par":1245,"▁dist":1246,"led":1247,"▁online":1248,"oph":1249,"ills":1250,"▁disc":1251,"▁mark":1252,"▁even":1253,"▁americ":1254,"kes":1255,"ma":1256,"uff":1257,"▁try":1258,"▁cool":1259,"▁much":1260,"▁mouth":1261,"▁ed":1262,"▁eff":1263,"▁learn":1264,"▁brother":1265,"▁polit":1266,"▁college":1267,"lect":1268,"▁ant":1269,"▁anime":1270,"▁suck":1271,"▁pregn":1272,"umb":1273,"blem":1274,"▁police":1275,"▁open":1276,"00":1277,"cer":1278,"ix":1279,"▁fake":1280,"▁bus":1281,"▁cri":1282,"▁pop":1283,"▁beh":1284,"ribe":1285,"▁problem":1286,"allow":1287,"▁giant":1288,"▁birth":1289,"-t":1290,"ek":1291,"gan":1292,"tt":1293,"▁sister":1294,"▁fire":1295,"▁book":1296,"orm":1297,"▁anim":1298,"▁res":1299,"▁teen":1300,"▁heal":1301,"▁enem":1302,"▁smo":1303,"▁remove":1304,"▁two":1305,"-w":1306,"ves":1307,"▁sne":1308,"▁fre":1309,"hes":1310,"▁daughter":1311,"iting":1312,"▁my":1313,"▁force":1314,"ention":1315,"iate":1316,"▁you.":1317,"▁des":1318,"▁dream":1319,"its":1320,"▁men":1321,"apt":1322,"aking":1323,"▁coca":1324,"▁trick":1325,"ively":1326,"disneyvacation":1327,"▁cocaine":1328,"job":1329,"kin":1330,"▁ap":1331,"▁was":1332,"▁walk":1333,"ates":1334,"▁mis":1335,"ider":1336,"olog":1337,"inder":1338,"ogn":1339,"▁count":1340,"hol":1341,"ler":1342,"sy":1343,"ven":1344,"ina":1345,"▁fall":1346,"▁incre":1347,"vert":1348,"▁vide":1349,"ations":1350,"▁introduce":1351,"▁ignore":1352,"▁'":1353,"iness":1354,"▁wa":1355,"orite":1356,"▁sec":1357,"ession":1358,"▁communicate":1359,"▁favorite":1360,"▁aw":1361,"enn":1362,"▁gang":1363,"▁rest":1364,"ulate":1365,"▁rock":1366,"▁nose":1367,"▁adv":1368,"▁throw":1369,"▁virgin":1370,"▁escape":1371,"▁control":1372,"path":1373,"uter":1374,"▁hy":1375,"▁fem":1376,"▁fail":1377,"▁boo":1378,"▁bul":1379,"▁cult":1380,"ane":1381,"▁ref":1382,"▁disney":1383,"▁it's":1384,"▁local":1385,"▁dominance":1386,"ng":1387,"▁sal":1388,"▁gam":1389,"key":1390,"▁red":1391,"▁us":1392,"▁does":1393,"ube":1394,"▁quest":1395,"▁attract":1396,"▁swe":1397,"▁recogn":1398,"▁tar":1399,"▁sol":1400,"▁wash":1401,"▁front":1402,"▁convers":1403,"aste":1404,"▁going":1405,"▁crush":1406,"▁trip":1407,"▁power":1408,"▁move":1409,"▁it’s":1410,"▁eng":1411,"ression":1412,"▁trump":1413,"▁wrong":1414,"▁finally":1415,"▁everyone":1416,"▁sit":1417,"▁pict":1418,"▁paper":1419,"▁those":1420,"▁change":1421,"▁poss":1422,"▁flo":1423,"ought":1424,"▁understand":1425,"▁listen":1426,"▁chicken":1427,"gic":1428,"▁tinder":1429,"owers":1430,"eral":1431,"omb":1432,"rog":1433,"▁mass":1434,"unt":1435,"▁never":1436,"▁teeth":1437,"▁arg":1438,"▁shower":1439,"▁smell":1440,"▁social":1441,"...":1442,"▁shadow":1443,"▁picture":1444,"a.":1445,"row":1446,"sb":1447,"▁squ":1448,"▁fan":1449,"▁fig":1450,"▁fact":1451,"▁bud":1452,"▁base":1453,"▁dif":1454,"ities":1455,"▁beat":1456,"▁eas":1457,"▁threes":1458,"ift":1459,"▁which":1460,"pper":1461,"▁blood":1462,"▁heart":1463,"▁racist":1464,"ience":1465,"oon":1466,"uc":1467,"▁cau":1468,"▁mir":1469,"alian":1470,"▁laugh":1471,"▁another":1472,"▁you've":1473,"▁computer":1474,"▁meme":1475,"▁happy":1476,"▁hamster":1477,"▁soul":1478,"▁sneak":1479,"▁increase":1480,"▁threesome":1481,"oin":1482,"▁4":1483,"▁sun":1484,"▁fast":1485,"▁bar":1486,"▁psy":1487,"▁dest":1488,"▁anal":1489,"rove":1490,"ross":1491,"▁should":1492,"olf":1493,"ular":1494,"istic":1495,"ument":1496,"▁drunk":1497,"▁teacher":1498,"▁r/disneyvacation":1499,"▁health":1500,"ior":1501,"ny":1502,"oint":1503,"▁touch":1504,"▁bill":1505,"▁past":1506,"ones":1507,"▁del":1508,"ald":1509,"▁lesb":1510,"▁pee":1511,"▁rap":1512,"ustr":1513,"▁quick":1514,"▁skin":1515,"▁masturbate":1516,"▁telepath":1517,"▁vegan":1518,"▁president":1519,"▁brain":1520,"▁student":1521,"▁video":1522,"▁lesbian":1523,"20":1524,"come":1525,"mas":1526,"▁fle":1527,"▁card":1528,"▁pur":1529,"▁light":1530,"▁nut":1531,"▁ang":1532,"▁stri":1533,"▁stalk":1534,"▁why":1535,"▁disapp":1536,"▁fear":1537,"▁better":1538,"▁fantasize":1539,"▁depression":1540,"▁music":1541,"▁effect":1542,"▁business":1543,"gy":1544,"i-":1545,"iet":1546,"mber":1547,"over":1548,"ric":1549,"ween":1550,"▁x":1551,"▁hom":1552,"▁yout":1553,"▁fat":1554,"▁bel":1555,"▁nipp":1556,"▁store":1557,"ram":1558,"▁leave":1559,"▁cock":1560,"▁around":1561,"▁assert":1562,"▁career":1563,"▁express":1564,"▁between":1565,"▁greet":1566,"▁conversation":1567,"▁figure":1568,"▁fil":1569,"▁bull":1570,"▁desc":1571,"▁inf":1572,"▁sho":1573,"▁prost":1574,"▁box":1575,"place":1576,"▁most":1577,"ather":1578,"▁surpr":1579,"▁phot":1580,"▁female":1581,"▁psych":1582,"cl":1583,"her":1584,"od":1585,"▁er":1586,"▁hard":1587,"ount":1588,"res":1589,"rection":1590,"▁cure":1591,"leg":1592,"▁ret":1593,"▁ep":1594,"▁things":1595,"▁def":1596,"oll":1597,"unch":1598,"▁cats":1599,"▁role":1600,"▁cann":1601,"▁marri":1602,"▁cowork":1603,"▁birthday":1604,"▁budget":1605,"▁diffe":1606,"af":1607,"ah":1608,"men":1609,"▁sim":1610,"read":1611,"▁bur":1612,"ene":1613,"▁mor":1614,"▁mill":1615,"ices":1616,"▁male":1617,"▁exam":1618,"ume":1619,"▁girls":1620,"▁its":1621,"▁club":1622,"▁build":1623,"aaaa":1624,"▁drive":1625,"▁201":1626,"▁strang":1627,"▁mirror":1628,"-s":1629,"book":1630,"gu":1631,"son":1632,"▁cir":1633,"ited":1634,"▁name":1635,"▁erection":1636,"otion":1637,"▁style":1638,"roy":1639,"▁cho":1640,"▁vacation":1641,"▁alien":1642,"▁dispose":1643,"▁prank":1644,"▁prison":1645,"▁looking":1646,"▁snake":1647,"▁respect":1648,"cohol":1649,"▁correctly":1650,"▁second":1651,"dle":1652,"ning":1653,"ru":1654,"ten":1655,"▁tree":1656,"▁host":1657,"▁size":1658,"▁won":1659,"▁wall":1660,"ative":1661,"▁got":1662,"▁met":1663,"▁ment":1664,"alf":1665,"acial":1666,"▁val":1667,"aren":1668,"▁exist":1669,"▁alcohol":1670,"▁area":1671,"▁grou":1672,"▁saf":1673,"▁adm":1674,"▁neighbors":1675,"board":1676,"▁balls":1677,"▁christmas":1678,"▁question":1679,"▁destroy":1680,"▁youtube":1681,"▁hat":1682,"rent":1683,"▁bow":1684,"▁bitch":1685,"▁cas":1686,"▁park":1687,"▁pants":1688,"ature":1689,"▁great":1690,"▁mil":1691,"▁still":1692,"▁form":1693,"ifi":1694,"imate":1695,"▁doll":1696,"▁exper":1697,"▁weird":1698,"▁you’ve":1699,"▁emo":1700,"body":1701,"▁confr":1702,"▁extra":1703,"▁annoying":1704,"▁upvotes":1705,"▁bathroom":1706,"▁recognize":1707,"-p":1708,"dr":1709,"lish":1710,"mate":1711,"the":1712,"▁ice":1713,"▁tur":1714,"head":1715,"itate":1716,"▁inner":1717,"▁thought":1718,"▁dev":1719,"▁shot":1720,"▁vi":1721,"▁inte":1722,"▁uni":1723,"▁prom":1724,"▁ens":1725,"▁week":1726,"▁scare":1727,"▁color":1728,"▁improve":1729,"▁pleasure":1730,"▁surprise":1731,"▁group":1732,"▁confront":1733,"-b":1734,"-l":1735,"fy":1736,"hn":1737,"▁fut":1738,"▁pu":1739,"▁wed":1740,"▁gold":1741,"lest":1742,"ality":1743,"▁ind":1744,"acc":1745,"acter":1746,"▁reject":1747,"▁forget":1748,"▁shop":1749,"▁left":1750,"▁plot":1751,"izz":1752,"▁imm":1753,"▁small":1754,"▁actually":1755,"▁master":1756,"▁thinking":1757,"▁accident":1758,"▁glass":1759,"rested":1760,"▁behind":1761,"▁describe":1762,"!!":1763,"ike":1764,"my":1765,"ym":1766,"yp":1767,"▁cast":1768,"▁die":1769,"oming":1770,"▁la":1771,"▁lad":1772,"ote":1773,"otic":1774,"▁kiss":1775,"▁karen":1776,"raph":1777,"▁plant":1778,"▁raise":1779,"▁order":1780,"▁john":1781,"ude":1782,"ropri":1783,"▁years":1784,"▁punch":1785,"▁discuss":1786,"ces":1787,"gle":1788,"xual":1789,"▁tit":1790,"▁taking":1791,"▁hol":1792,"▁hallow":1793,"▁tor":1794,"▁austr":1795,"oud":1796,"ines":1797,"▁same":1798,"erc":1799,"▁burn":1800,"▁cry":1801,"▁ped":1802,"▁puss":1803,"▁lat":1804,"ache":1805,"▁ele":1806,"▁third":1807,"▁magic":1808,"▁spend":1809,"▁less":1810,"▁prove":1811,"▁mod":1812,"▁discre":1813,"ized":1814,"▁flirt":1815,"ortion":1816,"ivor":1817,"▁surger":1818,"▁attention":1819,"duct":1820,"▁funeral":1821,"▁watching":1822,"▁grandma":1823,"▁blowjob":1824,"▁character":1825,"▁middle":1826,"▁problems":1827,"▁target":1828,"▁halloween":1829,"▁discreet":1830,"n’t":1831,"ple":1832,"▁ho":1833,"ination":1834,"▁send":1835,"▁sound":1836,"ense":1837,"▁meth":1838,"arch":1839,"icked":1840,"▁shame":1841,"▁jack":1842,"ason":1843,"▁race":1844,"▁becoming":1845,"▁dogs":1846,"▁lover":1847,"▁alone":1848,"▁someone's":1849,"▁cost":1850,"▁point":1851,"▁were":1852,"▁assass":1853,"▁creep":1854,"view":1855,"▁masturbating":1856,"▁invis":1857,"▁fingers":1858,"▁signs":1859,"fortable":1860,"▁market":1861,"▁pregnant":1862,"▁future":1863,"ding":1864,"dom":1865,"▁9":1866,"▁cy":1867,"▁cum":1868,"▁gun":1869,"▁there":1870,"▁law":1871,"▁begin":1872,"▁threat":1873,"ential":1874,"▁had":1875,"verse":1876,"▁rom":1877,"▁spir":1878,"▁spider":1879,"▁unw":1880,"▁meat":1881,"▁measure":1882,"▁letter":1883,"▁complet":1884,"▁inside":1885,"▁wearing":1886,"▁battle":1887,"▁american":1888,"▁enemies":1889,"▁ensure":1890,"▁discreetly":1891,"-h":1892,"▁hate":1893,"▁som":1894,"reci":1895,"▁fit":1896,"▁fly":1897,"▁piss":1898,"▁wifi":1899,"▁did":1900,"▁gender":1901,"▁mic":1902,"ana":1903,"▁inform":1904,"icious":1905,"▁kit":1906,"▁vag":1907,"asm":1908,"▁spy":1909,"▁exc":1910,"▁place":1911,"▁blue":1912,"▁cover":1913,"▁clone":1914,"▁contest":1915,"▁evil":1916,"▁wants":1917,"▁masturbation":1918,"velop":1919,"▁regret":1920,"▁distract":1921,"▁safely":1922,"ied":1923,"▁term":1924,"ouble":1925,"▁sand":1926,"▁fist":1927,"▁bas":1928,"▁cam":1929,"▁pack":1930,"▁duck":1931,"ital":1932,"arant":1933,"▁init":1934,"▁bear":1935,"▁ner":1936,"▁jer":1937,"▁friend's":1938,"▁level":1939,"▁office":1940,"▁feet":1941,"▁overcome":1942,"ograph":1943,"▁appreci":1944,"fully":1945,"▁skills":1946,"ibal":1947,"▁terror":1948,"▁argument":1949,"▁milk":1950,"▁invisible":1951,"-d":1952,"ein":1953,"of":1954,"r.":1955,"work":1956,"ze":1957,"▁half":1958,"▁aud":1959,"▁side":1960,"▁song":1961,"▁cross":1962,"▁wind":1963,"atur":1964,"ately":1965,"▁divor":1966,"▁mich":1967,"▁fort":1968,"▁may":1969,"▁chin":1970,"▁deb":1971,"▁develop":1972,"▁tech":1973,"▁sexually":1974,"akes":1975,"▁pos":1976,"▁cancer":1977,"▁ways":1978,"ances":1979,"▁successfully":1980,"▁imagine":1981,"▁support":1982,"▁healthy":1983,"▁effectively":1984,"▁someth":1985,"-a":1986,"hood":1987,"▁ir":1988,"▁hid":1989,"▁farm":1990,"▁cand":1991,"▁powers":1992,"▁wild":1993,"▁gain":1994,"▁thank":1995,"▁making":1996,"▁doing":1997,"▁vo":1998,"ieve":1999,"▁weed":2000,"▁sche":2001,"ives":2002,"▁brow":2003,"▁plane":2004,"▁adult":2005,"▁facebook":2006,"▁don’t":2007,"▁others":2008,"▁visit":2009,"▁satan":2010,"▁pussy":2011,"▁surgery":2012,"▁something":2013,".com":2014,"xic":2015,"▁table":2016,"▁pir":2017,"arge":2018,"▁las":2019,"▁egg":2020,"▁three":2021,"ellow":2022,"ama":2023,"aked":2024,"ivate":2025,"▁(for":2026,"▁appro":2027,"▁giving":2028,"▁orgasm":2029,"▁satis":2030,"▁film":2031,"▁cannibal":2032,"ier":2033,"▁/":2034,"▁ide":2035,"▁very":2036,"▁top":2037,"▁age":2038,"inal":2039,"▁camp":2040,"ato":2041,"att":2042,"▁ge":2043,"▁lim":2044,"acy":2045,"roke":2046,"▁once":2047,"ently":2048,"▁share":2049,"▁jap":2050,"▁jud":2051,"arth":2052,"ution":2053,"▁rich":2054,"▁susp":2055,"▁spouse":2056,"anted":2057,"▁team":2058,"pline":2059,"thing":2060,"▁sexy":2061,"▁kidn":2062,"ause":2063,"▁contact":2064,"▁killer":2065,"▁russ":2066,"▁fucking":2067,"▁demons":2068,"▁51":2069,"▁christian":2070,"▁robot":2071,"▁animal":2072,"▁disappoint":2073,"▁japan":2074,"cra":2075,"hole":2076,"iel":2077,"iving":2078,"lord":2079,"▁est":2080,"▁ill":2081,"ins":2082,"▁young":2083,"▁sil":2084,"▁bor":2085,"▁bot":2086,"▁cust":2087,"▁cour":2088,"▁natur":2089,"rim":2090,"rix":2091,"▁reven":2092,"▁stick":2093,"idence":2094,"vern":2095,"▁ju":2096,"▁jes":2097,"▁asian":2098,"▁abortion":2099,"▁disci":2100,"▁pray":2101,"que":2102,"▁italian":2103,"▁weight":2104,"▁drown":2105,"▁soci":2106,"▁safe":2107,"▁interview":2108,"ension":2109,"ertain":2110,"▁confuse":2111,"▁collection":2112,"▁month":2113,"▁telekin":2114,"▁punish":2115,"▁please":2116,"▁trying":2117,"▁floor":2118,"▁marriage":2119,"▁different":2120,"▁initiate":2121,"▁divorce":2122,"▁revenge":2123,"▁discipline":2124,"-m":2125,"dge":2126,"ged":2127,"hold":2128,"land":2129,"lder":2130,"te":2131,"ww":2132,"▁id":2133,"iny":2134,"inary":2135,"▁band":2136,"▁cur":2137,"▁cup":2138,"▁dent":2139,"ito":2140,"▁mult":2141,"essed":2142,"vember":2143,"▁earth":2144,"▁made":2145,"▁living":2146,"▁spell":2147,"▁lead":2148,"▁block":2149,"ther":2150,"▁govern":2151,"ager":2152,"▁november":2153,"▁bring":2154,"▁downvot":2155,"▁diet":2156,"ancy":2157,"▁drinking":2158,"▁paint":2159,"▁patient":2160,"▁experience":2161,"▁emoj":2162,"▁threaten":2163,"cy":2164,"gress":2165,"rat":2166,"rot":2167,"su":2168,"▁tim":2169,"reet":2170,"▁pull":2171,"▁wet":2172,"▁dark":2173,"▁gift":2174,"▁non":2175,"▁nice":2176,"▁naked":2177,"▁stra":2178,"▁stuff":2179,"▁stroke":2180,"▁kicked":2181,"▁deg":2182,"▁abuse":2183,"▁because":2184,"aster":2185,"▁uncle":2186,"▁coff":2187,"▁poison":2188,"▁scene":2189,"erman":2190,"ways":2191,"▁staring":2192,"▁organ":2193,"▁profile":2194,"▁profession":2195,"▁single":2196,"▁secretly":2197,"▁terri":2198,"▁smoke":2199,"ennial":2200,"▁nipples":2201,"ressed":2202,"▁millennial":2203,"▁unwanted":2204,"▁fortn":2205,"▁jesus":2206,"-f":2207,"got":2208,"ker":2209,"side":2210,"▁hun":2211,"▁dy":2212,"enact":2213,"▁must":2214,"▁rece":2215,"▁earn":2216,"▁ther":2217,"▁lie":2218,"▁abs":2219,"▁project":2220,"▁text":2221,"inea":2222,"▁uncom":2223,"▁arrested":2224,"▁enough":2225,"iality":2226,"▁smile":2227,"▁overlord":2228,"▁guinea":2229,"▁talking":2230,"duc":2231,"▁phys":2232,"▁slow":2233,"▁drag":2234,"▁early":2235,"▁green":2236,"▁syn":2237,"▁upvote":2238,"▁easy":2239,"▁caught":2240,"▁pedoph":2241,"▁vagina":2242,".com/":2243,"▁government":2244,"▁fortnite":2245,"bar":2246,"ging":2247,"ky":2248,"ov":2249,"r/":2250,"tly":2251,"wikihow":2252,"▁6":2253,"▁7":2254,"▁vers":2255,"▁found":2256,"▁foll":2257,"▁facial":2258,"▁capt":2259,"▁pool":2260,"▁dim":2261,"▁dating":2262,"itute":2263,"▁gym":2264,"eter":2265,"▁naz":2266,"ific":2267,"ed.":2268,"ents":2269,"▁door":2270,"▁short":2271,"olate":2272,"▁jump":2273,"▁asleep":2274,"ploy":2275,"▁offer":2276,"▁poor":2277,"▁playing":2278,"▁famous":2279,"▁neighbour":2280,"▁final":2281,"anned":2282,"▁priv":2283,"▁politely":2284,"▁doesn't":2285,"▁photo":2286,"▁pupp":2287,"▁wedding":2288,"▁lady":2289,"▁appreciate":2290,"▁satisfy":2291,"▁/r/":2292,"▁therap":2293,".wikihow":2294,"ault":2295,"kk":2296,"kward":2297,"mer":2298,"ows":2299,"▁bank":2300,"▁cap":2301,"▁pill":2302,"▁waste":2303,"hed":2304,"▁math":2305,"▁morn":2306,"▁low":2307,"▁lab":2308,"▁lord":2309,"▁reach":2310,"▁stat":2311,"ion.":2312,"ifu":2313,"ury":2314,"▁season":2315,"ers.":2316,"▁lemon":2317,"▁exerc":2318,"▁notice":2319,"▁always":2320,"▁child's":2321,"▁poke":2322,"▁roll":2323,"▁scre":2324,"▁rape":2325,"▁heroin":2326,"▁cold":2327,"▁embr":2328,"▁porno":2329,"▁arms":2330,"▁shooting":2331,"annel":2332,"▁meeting":2333,"▁america":2334,"▁cripp":2335,"ttps":2336,"▁awkward":2337,"▁games":2338,"▁thoughts":2339,"▁tort":2340,"▁techn":2341,"▁pirate":2342,"▁coffee":2343,"▁embrace":2344,"//":2345,"://":2346,"go":2347,"ox":2348,"▁tick":2349,"reddit":2350,"▁fix":2351,"▁bri":2352,"▁bond":2353,"▁cake":2354,"▁pie":2355,"ony":2356,"▁wit":2357,"▁warm":2358,"▁dry":2359,"orate":2360,"▁gri":2361,"▁gard":2362,"omer":2363,"ets":2364,"▁opp":2365,"icle":2366,"▁norm":2367,"stem":2368,"stein":2369,"▁ever":2370,"▁ston":2371,"▁stare":2372,"▁channel":2373,"▁shake":2374,"tern":2375,"uth":2376,"▁likes":2377,"▁condom":2378,"pped":2379,"▁moder":2380,"▁disco":2381,"▁disgu":2382,"▁co-w":2383,"ies.":2384,"▁true":2385,"ired":2386,"ously":2387,"ortal":2388,"anger":2389,"▁quarant":2390,"▁imperson":2391,"▁crack":2392,"▁calc":2393,"▁calm":2394,"▁roommate":2395,"▁animals":2396,"▁country":2397,"▁bully":2398,"▁coworkers":2399,"▁mentally":2400,"▁interest":2401,"▁spirit":2402,"▁jerk":2403,"▁uncomfortable":2404,".wikihow.com/":2405,"ttps://":2406,"▁co-work":2407,"ael":2408,"aur":2409,"aving":2410,"gar":2411,"lock":2412,"▁hour":2413,"▁tom":2414,"▁tooth":2415,"▁astr":2416,"▁cent":2417,"▁page":2418,"▁pizz":2419,"▁well":2420,"▁den":2421,"▁double":2422,"▁mr.":2423,"ising":2424,"▁oper":2425,"icy":2426,"▁lapt":2427,"▁rele":2428,"ility":2429,"▁ug":2430,"▁thing":2431,"opt":2432,"▁deep":2433,"andom":2434,"▁vie":2435,"▁rub":2436,"▁prep":2437,"▁prop":2438,"▁somebody":2439,"▁compl":2440,"▁comfort":2441,"▁enc":2442,"ipe":2443,"▁rad":2444,"▁breath":2445,"▁flash":2446,"ucks":2447,"▁adopt":2448,"▁employ":2449,"▁remind":2450,"rence":2451,"▁apple":2452,"▁apply":2453,"▁personal":2454,"▁ghosts":2455,"▁underw":2456,"▁subtly":2457,"▁system":2458,"▁autistic":2459,"wards":2460,"▁anti-":2461,"▁fresh":2462,"▁sweet":2463,"▁angry":2464,"▁michael":2465,"▁witness":2466,"▁laptop":2467,"▁view":2468,"-man":2469,"aut":2470,"fish":2471,"girl":2472,"ij":2473,"pre":2474,"uation":2475,"▁toy":2476,"▁today":2477,"▁fri":2478,"▁four":2479,"▁ban":2480,"▁both":2481,"▁done":2482,"orc":2483,"▁miss":2484,"▁infl":2485,"ety":2486,"esis":2487,"els":2488,"▁nar":2489,"▁street":2490,"▁kick":2491,"rage":2492,"▁dece":2493,"▁shirt":2494,"▁semen":2495,"antly":2496,"ational":2497,"ests":2498,"▁tea":2499,"▁note":2500,"▁dog's":2501,"▁word":2502,"▁worth":2503,"▁used":2504,"▁offic":2505,"agram":2506,"▁clos":2507,"▁oral":2508,"▁cheap":2509,"▁cheese":2510,"▁time.":2511,"▁mean":2512,"▁canad":2513,"ments":2514,"ounter":2515,"▁emotion":2516,"▁embar":2517,"▁asshole":2518,"▁addict":2519,"▁evidence":2520,"▁identity":2521,"ocal":2522,"▁household":2523,"▁expens":2524,"▁serial":2525,"▁locate":2526,"▁instagram":2527,"ched":2528,"▁imaginary":2529,"▁pregnancy":2530,"▁popular":2531,"▁virginity":2532,"▁quickly":2533,"▁telepathically":2534,"▁flex":2535,"▁valent":2536,"▁approach":2537,"▁morning":2538,"▁garden":2539,"▁embarra":2540,"-e":2541,"-up":2542,"born":2543,"gr":2544,"hip":2545,"no":2546,"▁hang":2547,"inc":2548,"▁sent":2549,"rel":2550,"erb":2551,"▁ful":2552,"▁father":2553,"▁bit":2554,"▁banned":2555,"▁drop":2556,"▁goose":2557,"▁mc":2558,"ision":2559,"▁beach":2560,"▁replace":2561,"▁state":2562,"roat":2563,"roll":2564,"▁mas":2565,"▁maint":2566,"igr":2567,"▁shark":2568,"▁whether":2569,"under":2570,"▁ring":2571,"▁lev":2572,"▁lost":2573,"▁alab":2574,"▁joke":2575,"▁cheating":2576,"▁smug":2577,"▁cream":2578,"▁snack":2579,"▁diar":2580,"▁compet":2581,"▁collect":2582,"▁communist":2583,"▁legs":2584,"▁farts":2585,"▁zomb":2586,"▁entertain":2587,"▁medical":2588,"▁minor":2589,"▁breasts":2590,"▁parrot":2591,"▁salad":2592,"▁sweat":2593,"▁possessed":2594,"▁shoes":2595,"▁defend":2596,"▁roleplay":2597,"▁choke":2598,"▁casually":2599,"▁audition":2600,"▁russian":2601,"▁terrible":2602,"▁syndr":2603,"▁pokemon":2604,"▁ugly":2605,"can":2606,"dies":2607,"ken":2608,"light":2609,"ping":2610,"ring":2611,"to":2612,"▁8":2613,"▁ver":2614,"▁tv":2615,"▁tong":2616,"▁sick":2617,"▁might":2618,"▁mess":2619,"any":2620,"isis":2621,"aring":2622,"▁ostr":2623,"▁lang":2624,"▁now":2625,"▁nud":2626,"rif":2627,"▁elect":2628,"roph":2629,"▁thumb":2630,"irm":2631,"iff":2632,"▁king":2633,"▁dem":2634,"▁via":2635,"▁random":2636,"▁spread":2637,"▁outside":2638,"▁notic":2639,"▁mock":2640,"▁coming":2641,"▁afric":2642,"▁wee":2643,"▁clot":2644,"▁clock":2645,"▁many":2646,"▁looks":2647,"▁activate":2648,"▁flat":2649,"▁perio":2650,"▁boys":2651,"▁can't":2652,"ption":2653,"▁interrog":2654,"▁appropri":2655,"▁10":2656,"▁loved":2657,"▁she's":2658,"▁address":2659,"▁subreddit":2660,"▁memor":2661,"▁coron":2662,"▁expect":2663,"▁liter":2664,"▁transform":2665,"▁hitler":2666,"▁jew":2667,"▁potato":2668,"▁entire":2669,"▁bedroom":2670,"▁urine":2671,"▁smoking":2672,"▁apolog":2673,"▁boobs":2674,"▁pictures":2675,"▁circ":2676,"▁bowl":2677,"▁immigr":2678,"▁japanese":2679,"craft":2680,"▁court":2681,"▁professional":2682,"▁dragon":2683,"▁crippling":2684,"▁torture":2685,"▁quarantine":2686,"▁maintain":2687,"▁syndrome":2688,"▁langu":2689,"iot":2690,"lt":2691,"nect":2692,"port":2693,"sf":2694,"zy":2695,"▁‘":2696,"▁our":2697,"▁hell":2698,"▁hook":2699,"▁hole":2700,"▁fa":2701,"▁full":2702,"▁cell":2703,"▁wood":2704,"▁mut":2705,"▁line":2706,"elly":2707,"▁nu":2708,"▁rev":2709,"▁gets":2710,"igare":2711,"olve":2712,"▁jail":2713,"▁search":2714,"ung":2715,"▁rat":2716,"▁space":2717,"▁sperm":2718,"antic":2719,"▁conj":2720,"▁exorc":2721,"umber":2722,"▁intim":2723,"▁cat's":2724,"▁loss":2725,"▁losing":2726,"▁alph":2727,"▁mods":2728,"▁someone’s":2729,"▁code":2730,"▁web":2731,"inky":2732,"ford":2733,"▁ride":2734,"▁news":2735,"▁track":2736,"▁flav":2737,"▁travel":2738,"▁workplace":2739,"▁school.":2740,"▁assault":2741,"▁appear":2742,"▁home.":2743,"▁switch":2744,"▁swallow":2745,"▁19":2746,"▁donald":2747,"▁detect":2748,"▁stealing":2749,"▁anyone":2750,"▁serve":2751,"▁driving":2752,"▁edition":2753,"▁crime":2754,"▁wait":2755,"▁waifu":2756,"▁prostate":2757,"▁prostitute":2758,"▁erotic":2759,"▁circle":2760,"▁metal":2761,"▁turtle":2762,"▁terrorist":2763,"▁hiding":2764,"ield":2765,"▁pedophile":2766,"▁nazi":2767,"▁astral":2768,"▁valentine":2769,"▁zombie":2770,"▁period":2771,"-in":2772,"boy":2773,"con":2774,"ga":2775,"gl":2776,"hing":2777,"lo":2778,"mm":2779,"mp":2780,"pret":2781,"sw":2782,"yard":2783,"▁taste":2784,"▁tiny":2785,"▁sad":2786,"▁fash":2787,"▁frog":2788,"▁fellow":2789,"▁bribe":2790,"▁cigare":2791,"▁pa":2792,"▁pi":2793,"▁pant":2794,"on.":2795,"▁warn":2796,"▁wolf":2797,"▁mot":2798,"▁mouse":2799,"arian":2800,"▁obs":2801,"▁reduce":2802,"▁educ":2803,"▁ult":2804,"▁chair":2805,"▁china":2806,"ames":2807,"▁defe":2808,"▁fru":2809,"▁lip":2810,"▁conc":2811,"ation.":2812,"▁product":2813,"abet":2814,"allen":2815,"▁molest":2816,"▁uns":2817,"agn":2818,"ips":2819,"▁rapper":2820,"▁traff":2821,"▁key":2822,"▁brit":2823,"ounce":2824,"rench":2825,"▁cred":2826,"▁explore":2827,"▁recy":2828,"▁record":2829,"▁reading":2830,"▁relig":2831,"▁subm":2832,"▁grade":2833,"▁racial":2834,"▁sleeping":2835,"▁monkey":2836,"▁serv":2837,"▁report":2838,"▁transition":2839,"▁veget":2840,"▁depressed":2841,"ches":2842,"▁harass":2843,"▁else":2844,"▁missing":2845,"▁english":2846,"▁massive":2847,"▁return":2848,"▁coworker":2849,"▁australian":2850,"▁complete":2851,"▁sandw":2852,"▁thanks":2853,"▁judge":2854,"▁degree":2855,"▁version":2856,"▁follow":2857,"▁dimension":2858,"▁exercise":2859,"▁techni":2860,"▁disguise":2861,"▁pizza":2862,"▁embarrass":2863,"bing":2864,"cies":2865,"do":2866,"don":2867,"e.":2868,"giving":2869,"hy":2870,"just":2871,"ray":2872,"sd":2873,"vest":2874,"▁hur":2875,"▁tow":2876,"▁ach":2877,"inj":2878,"▁sens":2879,"▁french":2880,"▁bang":2881,"▁bomb":2882,"hel":2883,"▁du":2884,"▁dild":2885,"itive":2886,"▁gar":2887,"▁gro":2888,"lex":2889,"alia":2890,"omy":2891,"ars":2892,"▁infect":2893,"▁ok":2894,"▁late":2895,"▁lower":2896,"▁large":2897,"▁story":2898,"▁throat":2899,"irus":2900,"irty":2901,"urance":2902,"▁challen":2903,"▁telling":2904,"▁vacc":2905,"pping":2906,"▁isn't":2907,"usive":2908,"iled":2909,"▁dog.":2910,"▁altern":2911,"▁knock":2912,"▁proud":2913,"▁finding":2914,"▁close":2915,"▁scream":2916,"▁meal":2917,"▁working":2918,"▁brush":2919,"▁quit":2920,"ourn":2921,"▁remain":2922,"▁\"the":2923,"aves":2924,"▁swim":2925,"▁snow":2926,"▁pets":2927,"▁funny":2928,"▁recover":2929,"▁crisis":2930,"▁butter":2931,"box":2932,"▁confirm":2933,"▁special":2934,"▁couch":2935,"▁they'":2936,"▁says":2937,"▁orgy":2938,"coming":2939,"▁paying":2940,"▁2020":2941,"▁superior":2942,"▁study":2943,"▁needs":2944,"▁soup":2945,"▁object":2946,"▁minut":2947,"▁teenage":2948,"▁enemy":2949,"oined":2950,"▁bullied":2951,"▁epstein":2952,"aaaaaaaa":2953,"▁2019":2954,"▁existence":2955,"▁weekend":2956,"▁costume":2957,"▁terms":2958,"ography":2959,"▁chinese":2960,"▁voice":2961,"▁telekinesis":2962,"▁dentist":2963,"▁emoji":2964,"▁receive":2965,"▁normal":2966,"▁diarr":2967,"▁tongue":2968,"▁clothes":2969,"▁language":2970,"▁fashion":2971,"▁cigarett":2972,"▁thanksgiving":2973,"-c":2974,"bl":2975,"back":2976,"gen":2977,"ium":2978,"mother":2979,"pect":2980,"▁hist":2981,"▁hint":2982,"▁todd":2983,"ourage":2984,"▁sac":2985,"▁fra":2986,"▁bon":2987,"▁bell":2988,"▁bag":2989,"▁cart":2990,"▁corn":2991,"▁cash":2992,"▁pap":2993,"▁pills":2994,"▁wal":2995,"▁wish":2996,"athe":2997}